{"<s>":0,"<pad>":1,"</s>":2,"<unk>":3,"<mask>":4,"!":5,"\"":6,"#":7,"$":8,"%":9,"&":10,"'":11,"(":12,")":13,"*":14,"+":15,",":16,"-":17,".":18,"/":19,"0":20,"1":21,"2":22,"3":23,"4":24,"5":25,"6":26,"7":27,"8":28,"9":29,":":30,";":31,"<":32,"=":33,">":34,"?":35,"@":36,"A":37,"B":38,"C":39,"D":40,"E":41,"F":42,"G":43,"H":44,"I":45,"J":46,"K":47,"L":48,"M":49,"N":50,"O":51,"P":52,"Q":53,"R":54,"S":55,"T":56,"U":57,"V":58,"W":59,"X":60,"Y":61,"Z":62,"[":63,"\\":64,"]":65,"^":66,"_":67,"`":68,"a":69,"b":70,"c":71,"d":72,"e":73,"f":74,"g":75,"h":76,"i":77,"j":78,"k":79,"l":80,"m":81,"n":82,"o":83,"p":84,"q":85,"r":86,"s":87,"t":88,"u":89,"v":90,"w":91,"x":92,"y":93,"z":94,"{":95,"|":96,"}":97,"~":98,"¡":99,"¢":100,"£":101,"¤":102,"¥":103,"¦":104,"§":105,"¨":106,"©":107,"ª":108,"«":109,"¬":110,"®":111,"¯":112,"°":113,"±":114,"²":115,"³":116,"´":117,"µ":118,"¶":119,"·":120,"¸":121,"¹":122,"º":123,"»":124,"¼":125,"½":126,"¾":127,"¿":128,"À":129,"Á":130,"Â":131,"Ã":132,"Ä":133,"Å":134,"Æ":135,"Ç":136,"È":137,"É":138,"Ê":139,"Ë":140,"Ì":141,"Í":142,"Î":143,"Ï":144,"Ð":145,"Ñ":146,"Ò":147,"Ó":148,"Ô":149,"Õ":150,"Ö":151,"×":152,"Ø":153,"Ù":154,"Ú":155,"Û":156,"Ü":157,"Ý":158,"Þ":159,"ß":160,"à":161,"á":162,"â":163,"ã":164,"ä":165,"å":166,"æ":167,"ç":168,"è":169,"é":170,"ê":171,"ë":172,"ì":173,"í":174,"î":175,"ï":176,"ð":177,"ñ":178,"ò":179,"ó":180,"ô":181,"õ":182,"ö":183,"÷":184,"ø":185,"ù":186,"ú":187,"û":188,"ü":189,"ý":190,"þ":191,"ÿ":192,"Ā":193,"ā":194,"Ă":195,"ă":196,"Ą":197,"ą":198,"Ć":199,"ć":200,"Ĉ":201,"ĉ":202,"Ċ":203,"ċ":204,"Č":205,"č":206,"Ď":207,"ď":208,"Đ":209,"đ":210,"Ē":211,"ē":212,"Ĕ":213,"ĕ":214,"Ė":215,"ė":216,"Ę":217,"ę":218,"Ě":219,"ě":220,"Ĝ":221,"ĝ":222,"Ğ":223,"ğ":224,"Ġ":225,"ġ":226,"Ģ":227,"ģ":228,"Ĥ":229,"ĥ":230,"Ħ":231,"ħ":232,"Ĩ":233,"ĩ":234,"Ī":235,"ī":236,"Ĭ":237,"ĭ":238,"Į":239,"į":240,"İ":241,"ı":242,"Ĳ":243,"ĳ":244,"Ĵ":245,"ĵ":246,"Ķ":247,"ķ":248,"ĸ":249,"Ĺ":250,"ĺ":251,"Ļ":252,"ļ":253,"Ľ":254,"ľ":255,"Ŀ":256,"ŀ":257,"Ł":258,"ł":259,"Ń":260,"à´":261,"àµ":262,"àµį":263,"Ġà´":264,"à´¿":265,"à´¸":266,"à´¾":267,"à´®":268,"an":269,"àµģ":270,"à´¨":271,"àµ»":272,"à´°":273,"à´ķ":274,"à´¤":275,"à´ľ":276,"ha":277,"àµĨ":278,"à´¯":279,"àµĢ":280,"àµĭ":281,"ar":282,"à´±":283,"à´¦":284,"à´·":285,"àµ¼":286,"à´¬":287,"in":288,"à´²":289,"à´µ":290,"Ġà´İ":291,"à´ª":292,"ra":293,"ee":294,"Ġà´ķ":295,"à´Ĥ":296,"th":297,"sh":298,"al":299,"à´¹":300,"Ġà´ª":301,"àµ½":302,"ma":303,"àµĩ":304,"à´ħ":305,"Ġà´¸":306,"er":307,"à´£":308,"na":309,"à´Ł":310,"sa":311,"Ġà´ľ":312,"à´«":313,"il":314,"à´¶":315,"Ġà´µ":316,"ch":317,"ya":318,"en":319,"on":320,"ri":321,"à´ļ":322,"à´¿.":323,"el":324,"as":325,"Ġà´®":326,"ku":327,"à´İ":328,"am":329,"sha":330,"à´Ĺ":331,"Ġà´İà´¸":332,"ab":333,"vi":334,"su":335,"la":336,"tha":337,"Ġà´¬":338,"ka":339,"ko":340,"jo":341,"mo":342,"se":343,"Ġp":344,"si":345,"à´³":346,"mar":347,"tt":348,"ja":349,"mu":350,"àµĤ":351,"ji":352,"àµĪ":353,"Ġà´ħ":354,"ni":355,"à´ŀ":356,"Ġà´Ĩ":357,"man":358,"àµ¾":359,"li":360,"ro":361,"Ġà´±":362,"me":363,"di":364,"re":365,"à´®à´¦":366,"à´Ĩ":367,"à´¹à´®":368,"ou":369,"va":370,"da":371,"ham":372,"Ġà´Ł":373,"ul":374,"de":375,"ÙĬ":376,"Ġà´¨":377,"mi":378,"àµº":379,"st":380,"ba":381,"ran":382,"Ø§":383,"san":384,"or":385,"Ġk":386,"à´§":387,"ki":388,"àµĨ.":389,"ju":390,"han":391,"à´°àµ»":392,"Ġb":393,"àµĥ":394,"hi":395,"Ġà´Ĩàµ¼":396,"le":397,"un":398,"Ġra":399,"thi":400,"ara":401,"à´ĸ":402,"Ġà´İàµ»":403,"Ġà´°":404,"pa":405,"à´¡":406,"âĢ":407,"bi":408,"Ġjo":409,"and":410,"àµ»à´¸":411,"med":412,"es":413,"yan":414,"àµį.":415,"ru":416,"shi":417,"Ġà´¤":418,"ÙĪ":419,"ti":420,"âĢĮ":421,"à´ħà´¨":422,"cha":423,"Ġv":424,"ani":425,"so":426,"ge":427,"fa":428,"kumar":429,"àµįâĢĮ":430,"Ġà´·":431,"ree":432,"ala":433,"ta":434,"à´Ń":435,"ana":436,"ali":437,"ina":438,"à´Ļ":439,"Ġ.":440,"dh":441,"hammed":442,"oo":443,"ke":444,"kar":445,"ini":446,"go":447,"is":448,"to":449,"Ġa":450,"Ġsa":451,"Ø±":452,"ÙĨ":453,"ga":454,"een":455,"à´ħà´¬":456,"lo":457,"àµ¯":458,"eena":459,"he":460,"Ġs":461,"à´¾à´Ĥ":462,"à´ľà´¯":463,"à´£àµ»":464,"Ġà´¡":465,"Ġna":466,"za":467,"à´¯àµ¼":468,"pi":469,"van":470,"ari":471,"Ġma":472,"à´Ĥ.":473,"do":474,"Ġà´«":475,"wa":476,"Ġà´ļ":477,"à´¸à´«":478,"pra":479,"ne":480,"tho":481,"bin":482,"ph":483,"à´İà´¸":484,"kh":485,"Ġà´¶":486,"du":487,"gu":488,"àµĹ":489,"dha":490,"àµ¼à´ľ":491,"à´¿à´Ĥ":492,"kun":493,"nan":494,"àµĬ":495,"ir":496,"Ġsu":497,"à´²à´ķ":498,"à´®à´¸":499,"rish":500,"ÙĦ":501,"bu":502,"em":503,"ol":504,"pp":505,"Ùİ":506,"jan":507,"son":508,"Ġm":509,"Ġà´¹":510,"chi":511,"Ġà´²":512,"ck":513,"Ġà´¦":514,"us":515,"Ġà´¯":516,"à´¯àµ»":517,"gi":518,"tti":519,"mol":520,"dul":521,"than":522,"be":523,"Ã¡":524,"à´¥":525,"ila":526,"je":527,"yi":528,"mas":529,"kk":530,"the":531,"Ġan":532,"te":533,"bo":534,"Ð°":535,"eri":536,"lu":537,"Ø³":538,"eer":539,"co":540,"Ø¨":541,"Ùħ":542,"ing":543,"à´¸à´¨":544,"ia":545,"à´ī":546,"hu":547,"à´ĩ":548,"thu":549,"àµ¼à´Ĺ":550,"Ġjose":551,"vin":552,"abdul":553,"hn":554,"mma":555,"muhammed":556,"ov":557,"Ġsha":558,"àµª":559,"Ùĥ":560,"à´ħà´®":561,"Øª":562,"kha":563,"Ġà´Ĺ":564,"ong":565,"eesh":566,"ski":567,"fi":568,"à´¸àµ»":569,"ci":570,"zi":571,"Ġmar":572,"mad":573,"mon":574,"dan":575,"thomas":576,"Ġà´İà´ļ":577,"Ġà´İàµ½":578,"ye":579,"yu":580,"à´°à´®":581,"pu":582,"dee":583,"ber":584,"mal":585,"Ġch":586,"ine":587,"Ø¯":588,"ang":589,"à´ľàµ»":590,"abu":591,"Ġj":592,"à´ļà´¨":593,"à´°à´¤":594,"das":595,"raj":596,"bha":597,"wi":598,"à´®à´¤":599,"Ġku":600,"cy":601,"à´ħà´ľ":602,"Ġmo":603,"à´®à´¨":604,"à´¸àµº":605,"Ã©":606,"ili":607,"nu":608,"krish":609,"et":610,"po":611,"kan":612,"arg":613,"thew":614,"yo":615,"à´İàµ»":616,"Ġn":617,"dar":618,"Ġf":619,"sree":620,"rin":621,"sar":622,"Ġkumar":623,"Ġpa":624,"à´Ĩàµ¼":625,"Ġà´ħà´¬":626,"à´ķàµ¼":627,"Ġja":628,"à´µàµ»":629,"eli":630,"jith":631,"ly":632,"ren":633,"sch":634,"qu":635,"Ġà´µàµ¼à´Ĺ":636,"Ġmu":637,"à´°à´¸":638,"Ġthomas":639,"she":640,"yar":641,"geor":642,"à´¸à´ľ":643,"no":644,"Ġà´ĩ":645,"ca":646,"tu":647,"à´¨à´¨":648,"ho":649,"ton":650,"Ùģ":651,"lin":652,"ska":653,"Ġjohn":654,"shan":655,"Ġmathew":656,"ce":657,"sal":658,"sk":659,"tty":660,"à´®àµ»":661,"à´°à´ľ":662,"à´°à´¹":663,"à´µà´¤":664,"Ġvi":665,"george":666,"kov":667,"Ġc":668,"Ð¸":669,"jee":670,"hese":671,"à´ªàµ»":672,"hammad":673,"Ġsi":674,"vas":675,"iya":676,"bas":677,"der":678,"sy":679,"Ġha":680,"Ġà´ī":681,"ze":682,"amma":683,"à´¹à´¨":684,"chu":685,"Ġpra":686,"ve":687,"àµĩà´¾":688,"anu":689,"val":690,"Ġjoseph":691,"Ġt":692,"bar":693,"riya":694,"ram":695,"var":696,"illa":697,"Ð°Ð":698,"bee":699,"arghese":700,"par":701,"à´°à´ķ":702,"à´°à´µ":703,"che":704,"Ġgeorge":705,"shee":706,"ale":707,"ny":708,"àµģ.":709,"chan":710,"àµĢà´Ĥ":711,"jin":712,"ry":713,"Ġtha":714,"mohammed":715,"Ã¶":716,"à´²àµ»":717,"à´ķà´¬":718,"à´²à´¤":719,"ÙĲ":720,"à´Łàµ»":721,"Ġd":722,"pe":723,"à´±à´£":724,"Ø§ÙĨ":725,"à´¹àµ»":726,"tta":727,"see":728,"Ġab":729,"fathi":730,"Ġro":731,"chand":732,"sin":733,"Ġman":734,"pal":735,"um":736,"by":737,"à´¨à´¸":738,"bra":739,"à´¯à´®":740,"à´ħà´ŀ":741,"ff":742,"àµ¼à´·":743,"mer":744,"à´¸à´¬":745,"à´®à´£":746,"har":747,"Ã¼":748,"fathima":749,"Ġko":750,"dran":751,"yil":752,"Ġe":753,"thy":754,"id":755,"war":756,"krishnan":757,"my":758,"Ø´":759,"ksh":760,"à´ĺ":761,"à´µà´°":762,"pan":763,"Ġvarghese":764,"à´±à´«":765,"eng":766,"far":767,"à´ħà´¶":768,"ak":769,"min":770,"nee":771,"Ġà´ļà´¨":772,"jas":773,"àµ¼à´®":774,"din":775,"à´¸à´²":776,"Ġà´ħà´¨":777,"ei":778,"à´¸à´¤":779,"os":780,"tz":781,"Ġà´±à´¹":782,"Ġsh":783,"ad":784,"gan":785,"ben":786,"à´®àµ½":787,"sr":788,"ÙĴ":789,"gh":790,"cz":791,"à´¹à´°":792,"à¦":793,"kam":794,"à´¸àµ½":795,"ova":796,"fee":797,"dhu":798,"ste":799,"à´¦àµ¼":800,"à´ħà´°":801,"Ġnair":802,"à´īà´®":803,"del":804,"bal":805,"à´ķà´£":806,"dhan":807,"Ġà´ħà´²":808,"Ø¬":809,"Ġkun":810,"Å¡":811,"àµ¼à´¤":812,"sam":813,"Ùĩ":814,"jaya":815,"à´±àµ¼":816,"sen":817,"Ġbabu":818,"ÙĬÙĨ":819,"lan":820,"lee":821,"tin":822,"à´ķà´°àµ»":823,"men":824,"tony":825,"à´ļàµ»":826,"à´¶àµ»":827,"Ġde":828,"ÑĢ":829,"à´ħà´Ń":830,"à´ľà´¸":831,"Ġpi":832,"ban":833,"karan":834,"à´¨à´¤":835,"à´§à´°àµ»":836,"dra":837,"à´ħà´¸":838,"gha":839,"à´°à´Ń":840,"ria":841,"dheen":842,"Ùı":843,"hamed":844,"kka":845,"à´°à´ŀ":846,"Ġgo":847,"jam":848,"kutti":849,"ev":850,"Ġà´Ń":851,"ur":852,"resh":853,"ger":854,"Ġà´Ĩà´¨":855,"Äį":856,"sham":857,"yam":858,"Ġabdul":859,"cob":860,"wan":861,"à´±à´¸":862,"à´µà´¨":863,"à´Ĩà´·":864,"mani":865,"ler":866,"shy":867,"à´Ĳ":868,"Ġbee":869,"gee":870,"ud":871,"à´ħà´ĸ":872,"àµ¼à´£":873,"Ġà´ħà´®":874,"sho":875,"Ġse":876,"oni":877,"Ð¸Ð":878,"Ġba":879,"Ġali":880,"shad":881,"we":882,"kal":883,"lal":884,"gar":885,"rah":886,"muhammad":887,"à´ħà´²":888,"Øº":889,"Ø²":890,"ppan":891,"sky":892,"sun":893,"raham":894,"unni":895,"kas":896,"ÃŃ":897,"Ġka":898,"Ġcha":899,"od":900,"à´¦àµ»":901,"sel":902,"à´´":903,"Ġkrish":904,"à´¨à´®":905,"ris":906,"à´¯à´¤":907,"à´±à´¹":908,"à´¸à´®":909,"Ġas":910,"à´¨àµ»":911,"au":912,"Ùĳ":913,"Ġi":914,"ter":915,"à´ķà´°":916,"jay":917,"àµ½à´µ":918,"kshmi":919,"dharan":920,"Ġsan":921,"Ø§Ø±":922,"à´¯à´ķ":923,"has":924,"à´ķàµ½":925,"Ġmary":926,"Ġraj":927,"lam":928,"à´·à´®":929,"vel":930,"bou":931,"kutty":932,"den":933,"sad":934,"sou":935,"ven":936,"ver":937,"ty":938,"Ġpaul":939,"aby":940,"bel":941,"jitha":942,"Ġà´ı":943,"kova":944,"sil":945,"zu":946,"à´°à´¶":947,"kul":948,"bil":949,"dy":950,"yas":951,"mini":952,"mary":953,"ppa":954,"tan":955,"à´ľà´¨":956,"Ø§ÙĦ":957,"Ġke":958,"fe":959,"à´°à´¦":960,"eem":961,"ser":962,"ai":963,"veen":964,"Äĩ":965,"à´®à´²":966,"sai":967,"win":968,"ras":969,"à´ľà´¯àµ»":970,"pou":971,"thul":972,"à´Ĩà´¯":973,"Ġjacob":974,"à´ªà´¤":975,"gal":976,"zar":977,"Ðµ":978,"Ġni":979,"Ġchand":980,"hana":981,"jose":982,"àµ½à´«":983,"shin":984,"àµ»à´·":985,"à´±à´®":986,"chin":987,"à´µàµ½":988,"Ġà´ľà´¯":989,"zo":990,"saf":991,"zh":992,"à´¨à´µ":993,"Ġà´ĸ":994,"len":995,"à´§à´¨":996,"asi":997,"ay":998,"Ġà´¸à´²":999,"arayan":1000,"Ġg":1001,"vo":1002,"Ġre":1003,"eera":1004,"Ã¤":1005,"raf":1006,"Ġabraham":1007,"Ġem":1008,"à´İàµ½":1009,"abi":1010,"Ġpu":1011,"jayan":1012,"ees":1013,"à´¤àµ»":1014,"Ġla":1015,"kkal":1016,"oj":1017,"à´¸àµ¼":1018,"Ġà´¤à´Ļ":1019,"per":1020,"à´¸à´°":1021,"à´¹à´¸":1022,"ash":1023,"que":1024,"aru":1025,"Ġà´ħà´¸":1026,"Ġmol":1027,"Ġà´Ĩàµ»":1028,"jesh":1029,"Ġmohan":1030,"à´Ĩà´°":1031,"ker":1032,"ami":1033,"à´ķà´²":1034,"tian":1035,"à´Ĩà´¨":1036,"deep":1037,"Ġdi":1038,"ene":1039,"ÙĪÙĨ":1040,"Ġà´¸à´ľ":1041,"math":1042,"erin":1043,"shu":1044,"pin":1045,"devi":1046,"cu":1047,"rath":1048,"car":1049,"soo":1050,"à´®à´±":1051,"lou":1052,"ron":1053,"àµ½à´ķ":1054,"sain":1055,"Ġthan":1056,"aba":1057,"ÙĬØ±":1058,"gam":1059,"cho":1060,"ner":1061,"rian":1062,"à´·à´¹":1063,"à´®à´°":1064,"sw":1065,"kin":1066,"krishna":1067,"him":1068,"rist":1069,"à´¨à´ķ":1070,"ela":1071,"à´¸à´ķ":1072,"orn":1073,"gen":1074,"hari":1075,"esh":1076,"nas":1077,"yn":1078,"Ġà´İà´¬":1079,"ÑĤ":1080,"Ġsun":1081,"àµ¼à´µ":1082,"à´ħà´ķ":1083,"Ġantony":1084,"pre":1085,"kko":1086,"à´¥àµ»":1087,"cker":1088,"smi":1089,"kumari":1090,"ÙĪØ±":1091,"chandran":1092,"sath":1093,"Ġà´®à´°":1094,"Ã³":1095,"dhi":1096,"Ð»":1097,"ell":1098,"à´¯à´¨":1099,"à´®à´ŀ":1100,"mp":1101,"ek":1102,"Ø©":1103,"cko":1104,"vil":1105,"Ġu":1106,"ah":1107,"fer":1108,"Ġjoy":1109,"à´Ĩà´¶":1110,"Ġam":1111,"àµ¼à´Ł":1112,"ÙĬÙĦ":1113,"zha":1114,"arun":1115,"à´®à´¹":1116,"à´«àµ¼":1117,"Ġpilla":1118,"à´°à´³":1119,"à´ķà´±":1120,"mil":1121,"Ñĥ":1122,"Ø¹":1123,"à´Ĺà´¸":1124,"àµ½à´¬":1125,"wil":1126,"dil":1127,"chen":1128,"tar":1129,"àµĭà´Ĥ":1130,"Ñģ":1131,"cher":1132,"sara":1133,"wski":1134,"Ġjam":1135,"babu":1136,"ranc":1137,"ros":1138,"mel":1139,"hman":1140,"bai":1141,"thil":1142,"Ġbi":1143,"à´ľà´²":1144,"Ã§":1145,"Ġà´°à´µ":1146,"ts":1147,"ed":1148,"Ġà´¸à´¤":1149,"ovÃ¡":1150,"las":1151,"à´¸à´¹":1152,"siya":1153,"Ġsebas":1154,"à´ķàµ»":1155,"sta":1156,"mala":1157,"ky":1158,"eela":1159,"alex":1160,"mann":1161,"mai":1162,"fu":1163,"Ġso":1164,"à´ħà´«":1165,"yya":1166,"rai":1167,"Ġà´¶à´¶":1168,"Ð½":1169,"à´¤à´®":1170,"tto":1171,"Ġà´¨à´¸":1172,"vya":1173,"rani":1174,"à´¯à´£àµ»":1175,"khil":1176,"anna":1177,"Ġal":1178,"Ġà´®à´¨":1179,"sana":1180,"roo":1181,"khan":1182,"à´¨à´ľ":1183,"Ð¼":1184,"ung":1185,"à´ħà´·":1186,"Ġshi":1187,"ilip":1188,"eva":1189,"à´µà´¸":1190,"ttan":1191,"Ġda":1192,"kash":1193,"shah":1194,"kara":1195,"Ġbeevi":1196,"ele":1197,"jana":1198,"Ġh":1199,"Ġph":1200,"rou":1201,"nath":1202,"à´¨à´¬":1203,"dam":1204,"tra":1205,"yamma":1206,"aj":1207,"ag":1208,"à´°à´£":1209,"dal":1210,"sz":1211,"af":1212,"lai":1213,"à´®à´¯":1214,"à´·àµ»":1215,"mya":1216,"Ġar":1217,"ino":1218,"Ġva":1219,"rancis":1220,"one":1221,"andan":1222,"à´ħà´¹à´®":1223,"at":1224,"Ġà´¸à´¨":1225,"Ġfa":1226,"wal":1227,"shnu":1228,"im":1229,"abe":1230,"pri":1231,"à´ħàµ»à´¸":1232,"john":1233,"ttil":1234,"Ġà´¨à´®":1235,"vu":1236,"à´Ĩà´¤":1237,"à´ı":1238,"à´¯à´¸":1239,"eni":1240,"ÅĤ":1241,"Ġpar":1242,"à´Łà´¤":1243,"àµ¼à´ķ":1244,"beena":1245,"à´·à´¬":1246,"priya":1247,"tham":1248,"eed":1249,"deen":1250,"gra":1251,"mana":1252,"kkan":1253,"lis":1254,"mah":1255,"à´ħà´¤":1256,"ÅŁ":1257,"dou":1258,"à´Ĵ":1259,"ÙĬØª":1260,"fo":1261,"Ġsree":1262,"asha":1263,"à´¹à´¨àµ»":1264,"à´¤à´¸":1265,"Ġkrishnan":1266,"Ġà´®à´±":1267,"les":1268,"fas":1269,"it":1270,"Ġà´ħà´²à´ķ":1271,"dhar":1272,"vid":1273,"à´³à´³":1274,"uk":1275,"yana":1276,"ster":1277,"Ġà´īà´®":1278,"manu":1279,"à´¸à´¬à´¤":1280,"à´İà´ļ":1281,"Ġmi":1282,"kkar":1283,"hal":1284,"mesh":1285,"nar":1286,"à´°àµº":1287,"Ġbaby":1288,"à´ħà´¨à´¨":1289,"Ġrajan":1290,"jun":1291,"Ġji":1292,"kou":1293,"Ġbha":1294,"rama":1295,"à´ħà´®àµ½":1296,"lar":1297,"kovÃ¡":1298,"jes":1299,"mohamed":1300,"her":1301,"mari":1302,"sheer":1303,"pree":1304,"mun":1305,"Ġdas":1306,"mariya":1307,"Ġà´ħà´¹à´®":1308,"ok":1309,"Ð¾":1310,"Ġes":1311,"sari":1312,"ÙĥÙĪ":1313,"Ġsal":1314,"àµ½à´¸":1315,"char":1316,"ent":1317,"dis":1318,"à´®à´ķ":1319,"ØŃ":1320,"Ġsebastian":1321,"you":1322,"ley":1323,"thar":1324,"à´ľà´®":1325,"Ġà´īà´£":1326,"Ġpillai":1327,"des":1328,"Ġà´Ĳ":1329,"Ġmuhammed":1330,"saj":1331,"sher":1332,"vis":1333,"wo":1334,"à´İà´¬":1335,"jar":1336,"elli":1337,"ÅĦ":1338,"joseph":1339,"amal":1340,"à´īà´£":1341,"Ġà´ıà´¬":1342,"Ð´":1343,"Ġcheri":1344,"res":1345,"eef":1346,"àµºà´¸àµº":1347,"eliz":1348,"tri":1349,"à´µàµ¼":1350,"à´¶à´Ļ":1351,"ayi":1352,"ther":1353,"à´ł":1354,"Ġphilip":1355,"à´µàµ¼à´Ĺ":1356,"avi":1357,"berg":1358,"ashi":1359,"nie":1360,"à´¶à´¶":1361,"ten":1362,"Ġà´İà´«":1363,"à´¯à´ª":1364,"Ġchacko":1365,"kor":1366,"à´ħà´ª":1367,"ella":1368,"Ġjames":1369,"sri":1370,"seena":1371,"à´¤à´Ļ":1372,"sak":1373,"âĢĻ":1374,"vÃ¡":1375,"ik":1376,"og":1377,"tte":1378,"kose":1379,"Ġà´®à´£":1380,"Ġà´ħà´ľ":1381,"à´¤à´ķ":1382,"zy":1383,"àµ½à´®":1384,"Ġfar":1385,"Ġà´ķà´°":1386,"Ġsam":1387,"vy":1388,"Ġà´¤à´¸":1389,"vic":1390,"ÙĬØ³":1391,"joy":1392,"Ġà´ħà´·":1393,"Ġà´İà´²":1394,"Ġmon":1395,"oli":1396,"nou":1397,"Ġà´¤à´®":1398,"à´ªà´ķ":1399,"deh":1400,"à´ĩà´¨":1401,"ÙĤ":1402,"lil":1403,"skaya":1404,"araj":1405,"bri":1406,"vich":1407,"jal":1408,"eel":1409,"aswa":1410,"om":1411,"à´Ĩàµ»":1412,"jer":1413,"ken":1414,"jil":1415,"Ġvin":1416,"dr":1417,"à´¬à´ķ":1418,"rat":1419,"Ġto":1420,"à´±à´¤":1421,"arayanan":1422,"ttu":1423,"von":1424,"thra":1425,"gin":1426,"à´Ĩà´¦":1427,"pen":1428,"kala":1429,"mohan":1430,"xi":1431,"à´ķà´¤":1432,"pat":1433,"Ġfrancis":1434,"yath":1435,"bro":1436,"don":1437,"oy":1438,"kku":1439,"kis":1440,"jen":1441,"Ġkurian":1442,"Ø§Ùħ":1443,"brahim":1444,"hai":1445,"suma":1446,"à´ļàµ½":1447,"gou":1448,"bor":1449,"wska":1450,"à´ľà´¯à´ķ":1451,"à´¶à´°à´¤":1452,"ose":1453,"Ġraju":1454,"àµ»à´ķ":1455,"à´«à´¸":1456,"gust":1457,"à´°à´¨":1458,"bur":1459,"pol":1460,"à´ķà´ļ":1461,"Ġmariya":1462,"thin":1463,"Ġel":1464,"Ġà´¹à´°":1465,"gil":1466,"eh":1467,"Ã¸":1468,"àµģà´Ĥ":1469,"lah":1470,"pon":1471,"mat":1472,"Ġben":1473,"oop":1474,"Ġchandran":1475,"eter":1476,"thas":1477,"Ġalex":1478,"Ġrahman":1479,"alan":1480,"àµ½à´¸àµº":1481,"pilla":1482,"jon":1483,"Ġmohammed":1484,"Ġkar":1485,"Ġà´°à´®":1486,"hara":1487,"mir":1488,"Ġkuru":1489,"Ġà´ħà´¶":1490,"zan":1491,"Ñħ":1492,"wicz":1493,"asu":1494,"Ñı":1495,"àµ»à´±":1496,"à´®àµ¼":1497,"Ġà´²à´ķ":1498,"anan":1499,"deepa":1500,"kon":1501,"nam":1502,"yani":1503,"Ø§Ø³":1504,"Ġmaria":1505,"à´¸à´¯":1506,"bala":1507,"zhi":1508,"vathi":1509,"chai":1510,"stan":1511,"Ġkrishna":1512,"br":1513,"à´±à´±":1514,"Ø§Øª":1515,"nisha":1516,"ey":1517,"Ġà´¸à´£":1518,"Ø§ÙĬ":1519,"gopal":1520,"rali":1521,"Ġà´ħà´Ĺà´¸":1522,"fal":1523,"à´¯à´£":1524,"had":1525,"Ġà´¬à´·":1526,"à´·à´«":1527,"cheri":1528,"khi":1529,"bert":1530,"xavi":1531,"sia":1532,"ÙĪÙĦ":1533,"geetha":1534,"say":1535,"sim":1536,"àµ½à´ľ":1537,"fan":1538,"deeja":1539,"param":1540,"Ġshaji":1541,"Ã¨":1542,"kri":1543,"à´µà´¦":1544,"dri":1545,"à´¸à´ŀ":1546,"ez":1547,"kkutti":1548,"Ġvar":1549,"tou":1550,"iz":1551,"àµºà´¸":1552,"pala":1553,"jyo":1554,"Ġbin":1555,"Ġsusan":1556,"mou":1557,"Ġtham":1558,"à´¹à´±":1559,"beevi":1560,"ander":1561,"sti":1562,"à´·à´¤":1563,"samma":1564,"Ġkutty":1565,"à´ħà´¯":1566,"Ġo":1567,"chel":1568,"dev":1569,"gel":1570,"moo":1571,"thosh":1572,"vishnu":1573,"can":1574,"à´®à´ļà´¨":1575,"Ġr":1576,"Ð°Ð½":1577,"ÙĳÙİ":1578,"swa":1579,"à´īà´·":1580,"à´¦àµ¼à´¶":1581,"sali":1582,"chandra":1583,"à´±à´ľ":1584,"à´µà´²":1585,"sah":1586,"dt":1587,"sis":1588,"Ġamma":1589,"ppu":1590,"abeth":1591,"ayisha":1592,"Ġsasi":1593,"à´¤à´«":1594,"à´²à´¸":1595,"kra":1596,"à´·à´¯":1597,"Ġham":1598,"ling":1599,"ooba":1600,"shai":1601,"az":1602,"Ð³":1603,"dhya":1604,"à´Łàµ¼":1605,"meri":1606,"Ġje":1607,"yer":1608,"à´µà´ª":1609,"à´ħàµ»":1610,"Ġthanka":1611,"Ġau":1612,"hin":1613,"sab":1614,"ng":1615,"ÙĪØ³":1616,"dor":1617,"shar":1618,"pha":1619,"fel":1620,"qi":1621,"Ġmen":1622,"sheed":1623,"Ġshe":1624,"Ġsali":1625,"jeev":1626,"à´®à´ľ":1627,"fathimath":1628,"yal":1629,"nai":1630,"pas":1631,"Ġlal":1632,"à´²à´®":1633,"Ġsara":1634,"Ġis":1635,"tsu":1636,"bre":1637,"à´Ĩà´¸":1638,"reesh":1639,"ous":1640,"Ġà´¶à´Ļ":1641,"akhil":1642,"dath":1643,"Ġrose":1644,"tor":1645,"àµ¼à´²":1646,"jai":1647,"lakshmi":1648,"à´®àµº":1649,"fin":1650,"kath":1651,"athi":1652,"ann":1653,"Ġkha":1654,"kunju":1655,"elizabeth":1656,"abhi":1657,"yoo":1658,"wu":1659,"thai":1660,"à´¯à´¦":1661,"kai":1662,"àµ½à´¨":1663,"à´ľà´Ĺ":1664,"eesha":1665,"Ġà´ķà´²":1666,"xavier":1667,"jisha":1668,"vai":1669,"à´°à´¯":1670,"à´°à´¸à´¨":1671,"hab":1672,"à´Ĩà´¨à´¨":1673,"rag":1674,"hel":1675,"vani":1676,"abdu":1677,"pour":1678,"jor":1679,"Ġà´±à´·":1680,"thya":1681,"nis":1682,"mc":1683,"zam":1684,"àµ»à´¸àµº":1685,"jos":1686,"lau":1687,"tas":1688,"Ġà´ĩà´¸":1689,"anju":1690,"à´¯àµ½":1691,"kho":1692,"nes":1693,"Ġà´ķà´£":1694,"mei":1695,"tel":1696,"à´±à´ķ":1697,"Ġdevas":1698,"kumaran":1699,"tis":1700,"lia":1701,"tam":1702,"devan":1703,"sto":1704,"Ġjohnson":1705,"gre":1706,"bhu":1707,"Ġà´ªà´£":1708,"Ġsham":1709,"à´Łà´ķ":1710,"pil":1711,"kur":1712,"cham":1713,"ÙĥÙĬ":1714,"à´±à´¯":1715,"à´¹àµ¼":1716,"gas":1717,"gul":1718,"à´ĵ":1719,"hen":1720,"usha":1721,"àµĩà´Ĥ":1722,"Å¾":1723,"pro":1724,"fre":1725,"thara":1726,"Ġunni":1727,"Ġwil":1728,"à´¤à´²":1729,"Ø±ÙĬ":1730,"àµ¼à´¦":1731,"àµ¦":1732,"à´¬à´·":1733,"à´ħàµ¼à´ľ":1734,"Ġà´¹à´¸":1735,"hy":1736,"push":1737,"àµĭ.":1738,"ard":1739,"ril":1740,"tre":1741,"Ġkal":1742,"cki":1743,"christ":1744,"ÙĪÙģ":1745,"viÄĩ":1746,"Ð¸Ð½":1747,"nand":1748,"tal":1749,"à´ķà´ª":1750,"à´ķà´®":1751,"bon":1752,"à´±à´·":1753,"Ø§Ø¨":1754,"suni":1755,"ppil":1756,"àµ¼à´¸":1757,"Ġth":1758,"à´ķà´¦":1759,"ll":1760,"stha":1761,"vana":1762,"himan":1763,"Ġza":1764,"Ç§":1765,"lath":1766,"Ġà´±à´¸":1767,"kunji":1768,"pet":1769,"kki":1770,"à´ĩà´¸":1771,"ÑĦ":1772,"mam":1773,"lei":1774,"veendran":1775,"Ġà´ªà´¤":1776,"Ġl":1777,"fiya":1778,"Ø®":1779,"cio":1780,"skii":1781,"paul":1782,"Ġju":1783,"àµ»à´²":1784,"Ø§Ø¯":1785,"fr":1786,"anil":1787,"Ðº":1788,"à´¤à´¨":1789,"mb":1790,"àµ¼à´³":1791,"Ġsuresh":1792,"poo":1793,"rose":1794,"saji":1795,"wat":1796,"à´ĩà´¬":1797,"Ġanna":1798,"reena":1799,"gun":1800,"Ġsunny":1801,"à´¨à´«":1802,"Ġkunju":1803,"shab":1804,"sabi":1805,"Ġà´ĩà´¬":1806,"Ġjas":1807,"Ġnayar":1808,"prasad":1809,"vee":1810,"ss":1811,"à´ľà´¤":1812,"zer":1813,"à´¹à´¬":1814,"eema":1815,"anand":1816,"sul":1817,"ghi":1818,"hou":1819,"radha":1820,"neethu":1821,"key":1822,"bath":1823,"à´¦à´°":1824,"àµĨà´¾":1825,"Ġsamu":1826,"thana":1827,"à´³à´ª":1828,"à´Ī":1829,"kina":1830,"diya":1831,"à´ħà´ľà´¯":1832,"rajan":1833,"gor":1834,"kshi":1835,"eep":1836,"àµ½à´¤":1837,"prasan":1838,"à´²à´ľ":1839,"Ġmani":1840,"à´°à´¬":1841,"cka":1842,"fran":1843,"for":1844,"hol":1845,"anitha":1846,"à´µà´ķ":1847,"shil":1848,"sru":1849,"à´¤àµ¼":1850,"eu":1851,"à´Ĩàµ»à´¸":1852,"Ä±":1853,"gy":1854,"jini":1855,"antony":1856,"dani":1857,"kunj":1858,"Ð°ÑĢ":1859,"vasan":1860,"sac":1861,"Ġprasad":1862,"à´¾.":1863,"à´«àµ»":1864,"à´¦à´¨àµ»":1865,"nasee":1866,"Ġjaya":1867,"rad":1868,"chana":1869,"kel":1870,"cal":1871,"mur":1872,"Ġmari":1873,"Ġpo":1874,"baby":1875,"raja":1876,"shna":1877,"wen":1878,"Ġsath":1879,"cel":1880,"tsi":1881,"àµ¼à´«":1882,"sur":1883,"fou":1884,"aria":1885,"pina":1886,"ano":1887,"manju":1888,"sey":1889,"Ġbasheer":1890,"Ġli":1891,"mul":1892,"prin":1893,"Ġaugust":1894,"stin":1895,"eenu":1896,"adi":1897,"sini":1898,"Ġdani":1899,"cia":1900,"à´¹à´¦":1901,"hl":1902,"Ġsar":1903,"vara":1904,"pani":1905,"ere":1906,"chal":1907,"ÑĮ":1908,"maya":1909,"shana":1910,"ulla":1911,"à´¦à´°àµ»":1912,"Ġri":1913,"à´ªà´±à´®":1914,"dez":1915,"hil":1916,"pad":1917,"Ġà´Ĩà´¨à´¨":1918,"vitha":1919,"à´İà´²":1920,"bina":1921,"lie":1922,"mitha":1923,"ane":1924,"tse":1925,"eetha":1926,"à´¶à´°à´£":1927,"divya":1928,"con":1929,"reshma":1930,"shid":1931,"cas":1932,"Ġfer":1933,"Ġpani":1934,"Ġroy":1935,"Ġkumari":1936,"vina":1937,"Ġpeter":1938,"à´Łà´¸":1939,"ks":1940,"hira":1941,"kesh":1942,"zadeh":1943,"Ġvijayan":1944,"ussain":1945,"Ø§ÙĪ":1946,"Ġcherian":1947,"Ġen":1948,"Ġà´®à´¤":1949,"los":1950,"ot":1951,"Ð²":1952,"sasi":1953,"Ġhari":1954,"Ġxavier":1955,"Ġkan":1956,"nik":1957,"à´®à´§":1958,"shal":1959,"Ġash":1960,"à´ħàµ¼":1961,"Ø§Ùĥ":1962,"Ġsaji":1963,"àµ½à´ª":1964,"à´ķà´¨":1965,"cou":1966,"à´ĸà´¦":1967,"shim":1968,"cil":1969,"à´¸à´ļ":1970,"prabha":1971,"à´¯à´·":1972,"à´¶à´¬":1973,"nal":1974,"zhu":1975,"àµ»à´ľ":1976,"kol":1977,"Ġà´Ĳà´¸à´ķ":1978,"wer":1979,"star":1980,"Ġbala":1981,"raju":1982,"wong":1983,"gui":1984,"Ġà´²à´¤":1985,"à´¦à´¨":1986,"nor":1987,"à´²à´ª":1988,"Ġkhan":1989,"latha":1990,"Ġdevi":1991,"Ø·":1992,"enko":1993,"ral":1994,"jad":1995,"Ð°Ð»":1996,"yed":1997,"zin":1998,"Ġà´Ī":1999,"Ġà´¸à´«":2000,"sala":2001,"Ġmenon":2002,"nair":2003,"smitha":2004,"hee":2005,"bindu":2006,"yeva":2007,"may":2008,"tus":2009,"Ġthas":2010,"mara":2011,"dasan":2012,"mail":2013,"cor":2014,"à´°à´ª":2015,"tani":2016,"Ġà´¹à´®":2017,"biju":2018,"gr":2019,"ÙĦÙĬ":2020,"neha":2021,"à´Ĳà´¶":2022,"jeesh":2023,"gri":2024,"à´Ĩà´®":2025,"tes":2026,"Ġlu":2027,"til":2028,"zal":2029,"à´ħà´²à´ķ":2030,"Ġtom":2031,"cent":2032,"jab":2033,"à´Ļàµ¾":2034,"giri":2035,"dia":2036,"àµ½à´·":2037,"à´§àµ»":2038,"tr":2039,"à´ľà´¹":2040,"bara":2041,"vind":2042,"yev":2043,"mathew":2044,"Ã¡n":2045,"amo":2046,"gum":2047,"Ġtho":2048,"à´®à´³":2049,"daran":2050,"à´®à´®":2051,"sani":2052,"chari":2053,"veena":2054,"mor":2055,"meh":2056,"eez":2057,"wari":2058,"à´ĺà´µàµ»":2059,"sunil":2060,"Ġelizabeth":2061,"Ø¯ÙĬ":2062,"à´¹à´«":2063,"ideen":2064,"jyothi":2065,"Ã±":2066,"Ġkuria":2067,"dhin":2068,"à´£à´ª":2069,"à´¤à´®àµ»":2070,"ut":2071,"à´°à´®à´£":2072,"raji":2073,"mbi":2074,"Ġann":2075,"à´¸àµ½à´®":2076,"binu":2077,"czy":2078,"anj":2079,"rendran":2080,"jeed":2081,"nim":2082,"nur":2083,"Ġà´Ĵ":2084,"suresh":2085,"tro":2086,"kir":2087,"ray":2088,"kuttan":2089,"Ġlo":2090,"vila":2091,"à´ªà´³":2092,"yah":2093,"Ġraja":2094,"vijaya":2095,"ea":2096,"shaji":2097,"Ġkoshy":2098,"à´¨à´¯":2099,"endran":2100,"steph":2101,"àµ¾à´¡":2102,"Ð·":2103,"Ġrama":2104,"Ġà´ıà´²":2105,"akh":2106,"ghu":2107,"ola":2108,"zen":2109,"Ø¨Ø±":2110,"aneesh":2111,"ttar":2112,"hir":2113,"oom":2114,"Ġven":2115,"à´¹àµ¼à´·":2116,"para":2117,"fil":2118,"qui":2119,"tter":2120,"naz":2121,"Ġà´¸à´ķ":2122,"Ġà´ľà´¸":2123,"alli":2124,"tch":2125,"Ġnarayanan":2126,"thodi":2127,"tov":2128,"fri":2129,"sthafa":2130,"varghese":2131,"hani":2132,"à´ħà´ªàµ¼à´£":2133,"bh":2134,"à´±àµ»à´¸":2135,"kuru":2136,"inger":2137,"pr":2138,"gol":2139,"Ø§Ùģ":2140,"à´£à´ķ":2141,"Ġà´®à´ľ":2142,"dai":2143,"Ġprakash":2144,"inesh":2145,"ingh":2146,"athira":2147,"Ġsherin":2148,"Ġpre":2149,"à¦¾":2150,"siva":2151,"Ġkp":2152,"bul":2153,"sheena":2154,"aman":2155,"syam":2156,"vala":2157,"was":2158,"à´ħàµ½à´«":2159,"zak":2160,"joo":2161,"Ġsabu":2162,"gli":2163,"Ġsalim":2164,"siri":2165,"nel":2166,"abin":2167,"skiy":2168,"aysha":2169,"à´¨à´ª":2170,"zil":2171,"suja":2172,"vith":2173,"rov":2174,"reesa":2175,"phi":2176,"rei":2177,"khar":2178,"nia":2179,"ys":2180,"sir":2181,"pun":2182,"sindhu":2183,"mee":2184,"Ġà´®à´¹":2185,"av":2186,"Ã½":2187,"eg":2188,"kr":2189,"à´³à´¤":2190,"Ġà´±à´«":2191,"Øµ":2192,"uma":2193,"à´¦à´¯":2194,"Ġanil":2195,"Ã¥":2196,"pong":2197,"zel":2198,"thiri":2199,"ÙĪÙħ":2200,"Ġà´¹à´¨":2201,"tur":2202,"à´³à´¸":2203,"à´ĸà´°àµ»":2204,"dol":2205,"Ġtti":2206,"aksha":2207,"kkandi":2208,"à´¸à´µ":2209,"à´µà´°àµ»":2210,"à´²à´¯":2211,"cin":2212,"à´°à´ľà´¨":2213,"abee":2214,"à´ŀà´®":2215,"sumi":2216,"Äįi":2217,"ison":2218,"Ġram":2219,"shida":2220,"zhan":2221,"pran":2222,"daya":2223,"Ġkuriakose":2224,"mod":2225,"àµ¼à´¬":2226,"sina":2227,"kle":2228,"ÙĬÙĥ":2229,"bol":2230,"rajesh":2231,"sudha":2232,"sheela":2233,"Ġà´µà´±":2234,"kana":2235,"nil":2236,"Ġbiju":2237,"nir":2238,"arya":2239,"sheeba":2240,"jina":2241,"col":2242,"aji":2243,"gon":2244,"Ð±":2245,"noo":2246,"bru":2247,"ÙĪØª":2248,"Ġbenny":2249,"maha":2250,"nau":2251,"à´Ĩà´²":2252,"ssa":2253,"Ġparam":2254,"Ġme":2255,"phan":2256,"soumya":2257,"oobacker":2258,"lon":2259,"thaman":2260,"ath":2261,"ÄŁ":2262,"gn":2263,"pura":2264,"jani":2265,"thiya":2266,"Ġmariam":2267,"pel":2268,"aliya":2269,"porn":2270,"athul":2271,"jeena":2272,"Ġdo":2273,"muh":2274,"kari":2275,"Ġà´ľà´²":2276,"soor":2277,"wei":2278,"deva":2279,"Ġshah":2280,"..":2281,"udheen":2282,"udeen":2283,"àµ¼à´¡":2284,"wy":2285,"à´ħàµ¼à´·":2286,"abh":2287,"à´¸à´±":2288,"Ġshan":2289,"ero":2290,"à´ķà´µ":2291,"noor":2292,"ghavan":2293,"à´¦à´¤":2294,"ajith":2295,"kru":2296,"kand":2297,"Ġhas":2298,"anda":2299,"muham":2300,"land":2301,"Ġà´Ĩàµ»à´±à´£":2302,"Ġle":2303,"à´«àµ½":2304,"waran":2305,"à´·à´ľ":2306,"mano":2307,"Ġval":2308,"Ġmohanan":2309,"leela":2310,"Ġchandra":2311,"gna":2312,"Ġà´®à´§":2313,"dur":2314,"sau":2315,"ÙĬÙħ":2316,"Ġki":2317,"Ġhan":2318,"ble":2319,"madhu":2320,"hesh":2321,"jeevan":2322,"phon":2323,"nayar":2324,"naj":2325,"à´Łà´ª":2326,"Ġrasheed":2327,"isal":2328,"bhan":2329,"bay":2330,"anoop":2331,"Ġvarg":2332,"Ġà´ħà´«":2333,"à´§à´µ":2334,"chuk":2335,"à´ıà´²":2336,"Ġjan":2337,"à´¬àµ¼":2338,"jahan":2339,"Ġbanu":2340,"à´¯à´¶":2341,"era":2342,"maria":2343,"aswathy":2344,"Ġaugustine":2345,"leena":2346,"kat":2347,"swana":2348,"à´Ĩàµ½à´¬":2349,"Ġahammed":2350,"Ġà´ħà´¯":2351,"à´§à´µàµ»":2352,"à´¦à´ķ":2353,"Ġmathews":2354,"sheeja":2355,"yama":2356,"Ġà´ħà´°":2357,"à´¨à´¦":2358,"yid":2359,"eesa":2360,"ravi":2361,"Ġgopal":2362,"Ġsamuel":2363,"loo":2364,"mohammad":2365,"subha":2366,"kie":2367,"Ġak":2368,"thika":2369,"Ġhussain":2370,"à´ħà´ļ":2371,"stein":2372,"sudh":2373,"por":2374,"à§":2375,"jeeb":2376,"lali":2377,"àµ½à´¡":2378,"bini":2379,"Ġnas":2380,"eefa":2381,"Ġà´·à´¹":2382,"ahammed":2383,"à´ħàµ¼à´ļ":2384,"mina":2385,"à´¹à´°àµ»":2386,"fai":2387,"Ġsc":2388,"lak":2389,"tai":2390,"jit":2391,"mis":2392,"madha":2393,"manoj":2394,"Ø«":2395,"Ġara":2396,"aro":2397,"Ã¶r":2398,"valli":2399,"tsch":2400,"Çİ":2401,"anas":2402,"yak":2403,"Ġaz":2404,"Ġashraf":2405,"ms":2406,"dhanya":2407,"ow":2408,"Ġga":2409,"hid":2410,"Ġsunil":2411,"mes":2412,"Ġjohny":2413,"Ġprabha":2414,"ony":2415,"ef":2416,"Ġhameed":2417,"shen":2418,"let":2419,"àµ»à´¡":2420,"ganga":2421,"keer":2422,"andre":2423,"remya":2424,"à´Ńàµ»":2425,"eeth":2426,"Ġsai":2427,"raman":2428,"gro":2429,"jithin":2430,"Ġà´°à´¤":2431,"à´°à´ĺ":2432,"rahul":2433,"nisa":2434,"path":2435,"ÅĦska":2436,"dathil":2437,"gÃ¼":2438,"ood":2439,"à´ķà´®à´²":2440,"nad":2441,"tso":2442,"Ġraveendran":2443,"pai":2444,"Ġabdulla":2445,"Ġwilson":2446,"kil":2447,"Ġà´ħàµ»à´¸":2448,"Ġbai":2449,"boon":2450,"lov":2451,"kos":2452,"Ġya":2453,"abha":2454,"asa":2455,"cam":2456,"cle":2457,"raz":2458,"wani":2459,"vand":2460,"Ø¨ÙĬ":2461,"Ġsalam":2462,"reen":2463,"kke":2464,"sneha":2465,"Ġà´§":2466,"à´¸à´¦":2467,"vinod":2468,"str":2469,"ney":2470,"inan":2471,"shani":2472,"Ġmuhammad":2473,"sid":2474,"neesa":2475,"hei":2476,"Ġdavis":2477,"ÃŁ":2478,"Ã£":2479,"à´·à´°":2480,"Ġà´ªàµ¼à´µ":2481,"amina":2482,"Ġthangal":2483,"haran":2484,"à´ªà´£":2485,"Ġà´Ĩà´ļ":2486,"vathy":2487,"à´ħà´¦":2488,"à´ľà´±":2489,"à´·à´¹à´¨":2490,"sherin":2491,"chenko":2492,"bran":2493,"ilipp":2494,"Ãº":2495,"à´·à´ķ":2496,"à´ĵà´®à´¨":2497,"oz":2498,"som":2499,"kiran":2500,"maz":2501,"ilash":2502,"Ġthankachan":2503,"gla":2504,"tsa":2505,"wara":2506,"dro":2507,"ruz":2508,"chev":2509,"Ġsanthosh":2510,"lor":2511,"asan":2512,"à´·à´¨":2513,"à´ħà´°à´µ":2514,"bab":2515,"aswathi":2516,"à´±à´¬":2517,"à´µàµ¼à´£":2518,"Ġvincent":2519,"Ġà´İà´ķ":2520,"Ġà´İàµ½à´¸":2521,"amar":2522,"à´¹à´®à´®à´¦":2523,"yin":2524,"theesh":2525,"Ç§lu":2526,"Ġà´ħà´ķ":2527,"bla":2528,"biya":2529,"Ġsoman":2530,"ew":2531,"Ġvenu":2532,"dzi":2533,"cke":2534,"fana":2535,"Ġne":2536,"alakshmi":2537,"tova":2538,"vol":2539,"saran":2540,"Ġà´Ĩà´·":2541,"kl":2542,"hor":2543,"Ġbeegam":2544,"haji":2545,"à´ĸà´±":2546,"àµ½à´¸àµ»":2547,"chithra":2548,"ono":2549,"Ġà´°à´ĺ":2550,"sol":2551,"Ø³Øª":2552,"shini":2553,"Ġravi":2554,"à´¨à´±":2555,"arajan":2556,"Ġà´¸à´¹":2557,"ena":2558,"liya":2559,"cer":2560,"Ġpk":2561,"chael":2562,"Ġsimon":2563,"àµ»à´°":2564,"Ġà´ľà´¯àµ»":2565,"Ġpoo":2566,"kani":2567,"tul":2568,"vini":2569,"mura":2570,"Ø´ÙĬ":2571,"shara":2572,"Ġbhas":2573,"xu":2574,"bun":2575,"hr":2576,"ess":2577,"à´¯à´Ļ":2578,"Ġà´ľà´¬":2579,"sunitha":2580,"dian":2581,"dhun":2582,"Ġum":2583,"Ġà´·à´®":2584,"nithin":2585,"Ð°ÑĤ":2586,"Ġmanu":2587,"ÅĦski":2588,"lim":2589,"Ġdavid":2590,"kab":2591,"à´ªà´®":2592,"à´ļà´®":2593,"meena":2594,"vik":2595,"Ġmathai":2596,"mag":2597,"mali":2598,"ddheen":2599,"Ð°Ð¼":2600,"à´ħà´¹":2601,"pur":2602,"à´«àµ¼à´¸":2603,"sarath":2604,"Ġvasu":2605,"nin":2606,"à´ĸàµ¼":2607,"Ġpara":2608,"Ġbalan":2609,"abdulla":2610,"haf":2611,"bir":2612,"yun":2613,"Ġà´ĵ":2614,"à´¸à´°à´¸":2615,"sten":2616,"tun":2617,"manan":2618,"à´ªà´ļ":2619,"oui":2620,"à´Ĺà´£":2621,"rajee":2622,"à´ķà´Ł":2623,"mmal":2624,"miya":2625,"dhee":2626,"Ġrani":2627,"Ġrah":2628,"kali":2629,"bah":2630,"Ã¢":2631,"rom":2632,"nabee":2633,"iah":2634,"santhosh":2635,"bes":2636,"à´Ĩà´¦àµ¼à´¶":2637,"à´²à´³":2638,"à´²à´µ":2639,"sie":2640,"Ġper":2641,"ttin":2642,"seetha":2643,"ao":2644,"à´¬à´¬":2645,"khu":2646,"ghese":2647,"lab":2648,"praveen":2649,"Ġrahiman":2650,"Ġmadha":2651,"rus":2652,"varg":2653,"muhamed":2654,"Ø¨ÙĪ":2655,"Ġibrahim":2656,"kkara":2657,"khadeeja":2658,"hon":2659,"ÄĹ":2660,"dhanan":2661,"zhe":2662,"kadeeja":2663,"sebas":2664,"kowski":2665,"ÑĪ":2666,"shir":2667,"charia":2668,"dari":2669,"saa":2670,"alo":2671,"Ġpan":2672,"py":2673,"Ġà´¨à´µ":2674,"Ġmun":2675,"wang":2676,"Ġà´Ĩà´¸":2677,"Ġthe":2678,"prakash":2679,"Ġà´·à´«":2680,"kandi":2681,"elo":2682,"koya":2683,"à´§à´°":2684,"moni":2685,"yuk":2686,"Ġà´Ńà´Ł":2687,"hida":2688,"Ġfathima":2689,"abraham":2690,"cci":2691,"dik":2692,"ummu":2693,"àµ¼à´¹":2694,"kochu":2695,"Ġkunhi":2696,"jis":2697,"à´ľà´¯à´¶":2698,"à´ħà´®à´²":2699,"Ġjal":2700,"Ġmajeed":2701,"Ġnou":2702,"Ġà´ĩà´Ł":2703,"dre":2704,"à´µà´±":2705,"feeq":2706,"à´¯à´±":2707,"sang":2708,"schi":2709,"Ġà´¸à´¦":2710,"dya":2711,"gne":2712,"berger":2713,"meera":2714,"simi":2715,"gue":2716,"haj":2717,"à´ħà´¨à´¸":2718,"à´ĩà´®":2719,"lly":2720,"korn":2721,"alu":2722,"dir":2723,"Ġà´ķà´®":2724,"à´İà´®":2725,"gur":2726,"rak":2727,"dun":2728,"à´Ļàµ½":2729,"Ġsurendran":2730,"Ġà´ľà´®":2731,"mak":2732,"bau":2733,"nay":2734,"Ð¸Ð»":2735,"à´Ĩà´¬":2736,"Ġà´¸à´®":2737,"à´³à´ķ":2738,"oglu":2739,"à´ªà´°":2740,"sajitha":2741,"Ġea":2742,"pam":2743,"gopi":2744,"Ġscaria":2745,"namma":2746,"dira":2747,"ruk":2748,"Ġdaniel":2749,"Ġani":2750,"Ġreji":2751,"à´¬àµ»":2752,"unnisa":2753,"Ġgi":2754,"suf":2755,"elle":2756,"à´ħà´¨à´ĺ":2757,"josaf":2758,"à´Ĩà´ķ":2759,"Ġmoo":2760,"bach":2761,"sandhya":2762,"ttana":2763,"kre":2764,"hannan":2765,"ÙĬÙģ":2766,"kharan":2767,"nen":2768,"jak":2769,"Ġrai":2770,"lyn":2771,"Ø±ÙĪ":2772,"gau":2773,"Ġmurali":2774,"àµ»à´¸àµ»":2775,"nikhil":2776,"vidya":2777,"shma":2778,"jorj":2779,"ais":2780,"vath":2781,"Ġà´ªà´Ł":2782,"sub":2783,"mus":2784,"phy":2785,"Ġmanoj":2786,"hra":2787,"Ġà´°à´ŀ":2788,"Ġfernan":2789,"Ġà´Ĩà´¶":2790,"poor":2791,"ert":2792,"à´ħà´²àµ»":2793,"vam":2794,"ÑĥÐ»":2795,"àµ¾à´¸":2796,"lekha":2797,"stu":2798,"warya":2799,"prakas":2800,"Ġsher":2801,"Ġhassan":2802,"Ġgopina":2803,"stephen":2804,"mine":2805,"rie":2806,"Ġdev":2807,"zou":2808,"à´¬àµ¼à´Ł":2809,"riyas":2810,"oor":2811,"à´İà´¡":2812,"boo":2813,"palli":2814,"xia":2815,"à´¤à´±":2816,"à´Ńà´¨":2817,"Ġgopi":2818,"Ġsingh":2819,"Ġ(":2820,"samu":2821,"Ġà´µàµ¼à´ķ":2822,"à´Ĺàµ¼":2823,"pillai":2824,"ÙĬØ¯":2825,"Ġissac":2826,"fen":2827,"Ġà´ķà´¬":2828,"theen":2829,"ulu":2830,"cen":2831,"zia":2832,"à´·à´±":2833,"à´ľà´¯à´¨":2834,"muthu":2835,"àµ»à´¦":2836,"misha":2837,"etti":2838,"Ġradha":2839,"gho":2840,"thun":2841,"shel":2842,"shok":2843,"tzi":2844,"jou":2845,"roy":2846,"Ġkoya":2847,"nov":2848,"à´łàµ»":2849,"àµ½à´¦":2850,"kunhi":2851,"vindan":2852,"Ġà´¨à´¨":2853,"ech":2854,"roz":2855,"una":2856,"à´Ńà´µ":2857,"Ġprasan":2858,"à´£à´µ":2859,"à´¯à´°":2860,"gala":2861,"Ġbalakrishnan":2862,"sister":2863,"scha":2864,"tom":2865,"à´ľà´ª":2866,"ily":2867,"dah":2868,"Ð¸ÑĢ":2869,"Ġà´İà´¨":2870,"yel":2871,"à´¤à´°":2872,"kes":2873,"lian":2874,"zad":2875,"Ġmadhu":2876,"santha":2877,"hini":2878,"ÅĽ":2879,"bair":2880,"Ġà´ľà´¨":2881,"Ã¯":2882,"bana":2883,"Ġnambi":2884,"Ġcheriyan":2885,"pana":2886,"suha":2887,"wai":2888,"Ġmer":2889,"sas":2890,"koo":2891,"à´²à´±":2892,"Ġanand":2893,"tab":2894,"Ġmam":2895,"pee":2896,"saha":2897,"jah":2898,"sreeja":2899,"gara":2900,"Ġchi":2901,"oommen":2902,"lÃ©":2903,"à´ªà´¨":2904,"wel":2905,"àµ»à´®":2906,"our":2907,"Ġà´ħà´·à´±à´«":2908,"amol":2909,"pna":2910,"abhan":2911,"gesh":2912,"salam":2913,"zai":2914,"ckal":2915,"Ġà´¨à´ľ":2916,"vipin":2917,"mau":2918,"suk":2919,"jiji":2920,"Ġnamp":2921,"tru":2922,"rutha":2923,"'s":2924,"bili":2925,"lun":2926,"bindhu":2927,"vijay":2928,"feek":2929,"rekha":2930,"ibrahim":2931,"esa":2932,"shev":2933,"hima":2934,"sakh":2935,"Ġthampi":2936,"mila":2937,"à´ªà´µ":2938,"wati":2939,"Ġà´·à´¬":2940,"à´ľà´¯à´²à´ķ":2941,"Ġnaz":2942,"apar":2943,"à´ħà´Ĺà´¸":2944,"shem":2945,"sio":2946,"bika":2947,"Ġjayan":2948,"sruthi":2949,"jn":2950,"rey":2951,"ÙħØ§ÙĨ":2952,"Ġpon":2953,"Ġala":2954,"sathi":2955,"aa":2956,"à´µà´¸à´¨":2957,"rab":2958,"kkadan":2959,"eesan":2960,"theef":2961,"Ġbe":2962,"fath":2963,"Ġmano":2964,"eb":2965,"gana":2966,"à´£à´®":2967,"ello":2968,"lav":2969,"day":2970,"thanka":2971,"à´īà´¸":2972,"vasu":2973,"Ġzacharia":2974,"seri":2975,"sujith":2976,"sm":2977,"à´ľà´¶":2978,"stra":2979,"vili":2980,"ilo":2981,"gopalan":2982,"Ġà´¸à´ĸà´±":2983,"then":2984,"à´ħàµ»à´µàµ¼":2985,"ÙĬÙĪ":2986,"àµºà´¸àµ»":2987,"Ġvaru":2988,"pushpa":2989,"jul":2990,"Ġpanicker":2991,"à´ħà´µ":2992,"Ġpou":2993,"Ġnath":2994,"Ġjab":2995,"Ġkari":2996,"Ġà´İàµ½à´¦":2997,"Ġpad":2998,"vir":2999,"beeb":3000,"à´¹àµ»à´¦":3001,"Ġà´Ĩà´°":3002,"tia":3003,"vijayan":3004,"bat":3005,"Ġà´¹à´ķ":3006,"rosh":3007,"amu":3008,"usman":3009,"ant":3010,"Ø§Ø¬":3011,"gai":3012,"Ġmohamed":3013,"gees":3014,"lose":3015,"Ġà´«àµ¼à´¸":3016,"sse":3017,"arjun":3018,"ona":3019,"ajay":3020,"hri":3021,"hamad":3022,"poulos":3023,"pul":3024,"shak":3025,"hus":3026,"Ġnarayan":3027,"Ġazeez":3028,"run":3029,"wana":3030,"Ġà´ħà´°à´µ":3031,"glu":3032,"Ġnazar":3033,"bei":3034,"oothiri":3035,"ghe":3036,"kro":3037,"Ġren":3038,"ec":3039,"à´ħàµ½":3040,"narayan":3041,"pathu":3042,"red":3043,"jim":3044,"fon":3045,"rathi":3046,"chun":3047,"gab":3048,"à´ľà´¬":3049,"lya":3050,"shibu":3051,"Ġà´µàµ¼à´®":3052,"kannan":3053,"akhila":3054,"à´ħàµ»à´·":3055,"kay":3056,"nat":3057,"Ġlatheef":3058,"mathyu":3059,"sko":3060,"Ġst":3061,"shyam":3062,"nya":3063,"ppi":3064,"Ġmusthafa":3065,"asim":3066,"ajitha":3067,"ghan":3068,"Ġpai":3069,"aso":3070,"mohanan":3071,"tyan":3072,"gian":3073,"Ġfernandez":3074,"ÙĬØ§":3075,"à´±à´²":3076,"die":3077,"deepak":3078,"à´²à´ļà´¨":3079,"nafee":3080,"Ġsel":3081,"jinu":3082,"à´İàµ½à´¸":3083,"Ġhaji":3084,"jacob":3085,"rar":3086,"Ġà´ħà´ļ":3087,"mathi":3088,"pradeep":3089,"Ġsiva":3090,"Ġbeegum":3091,"Ġvinod":3092,"Ġà´¸à´¬":3093,"ranj":3094,"à´ķà´ľ":3095,"bebi":3096,"kkab":3097,"à´ľà´¯à´ª":3098,"francis":3099,"anjana":3100,"mood":3101,"sei":3102,"rahman":3103,"àµ½à´°":3104,"Ġru":3105,"inu":3106,"andar":3107,"kamma":3108,"Ġeli":3109,"Ġanto":3110,"sob":3111,"à´ľà´¯à´°":3112,"à´®àµ»à´¸":3113,"haseena":3114,"jel":3115,"niya":3116,"Ã¶z":3117,"ÙĬØªØ´":3118,"villa":3119,"ancy":3120,"Ð¶":3121,"dho":3122,"à´µàµ¼à´·":3123,"mez":3124,"fy":3125,"lay":3126,"kli":3127,"thali":3128,"Ġhu":3129,"fra":3130,"dov":3131,"nus":3132,"dz":3133,"à´ļà´²":3134,"Ġfas":3135,"Ġmariyam":3136,"Ð°Ð¹":3137,"Ġelsa":3138,"surya":3139,"Ġnambiar":3140,"shina":3141,"kit":3142,"Ġsudha":3143,"reef":3144,"à´«à´¤":3145,"bek":3146,"prem":3147,"Ġoommen":3148,"manabhan":3149,"Ġcy":3150,"chy":3151,"chou":3152,"preetha":3153,"àµĨàµĨ":3154,"à´Ĩà´°à´¤":3155,"dara":3156,"Ķà´¸":3157,"Ġsaju":3158,"ddin":3159,"Ġder":3160,"à´ªà´¸":3161,"Ġpun":3162,"àµºà´ķ":3163,"cchi":3164,"rio":3165,"abath":3166,"dav":3167,"thal":3168,"Ð°Ð´":3169,"ile":3170,"Ġà´Ĺà´«":3171,"Ġrao":3172,"isy":3173,"Ġabdu":3174,"sc":3175,"à´§àµ¼":3176,"muna":3177,"mba":3178,"Ġvarkey":3179,"shaf":3180,"Ġvee":3181,"yon":3182,"Ġstephen":3183,"Ġden":3184,"lang":3185,"jian":3186,"lid":3187,"Ġpush":3188,"anjali":3189,"ramya":3190,"à´Ĳà´·":3191,"Ġramachandran":3192,"à´Ĺà´¨":3193,"bitha":3194,"ivan":3195,"Ġkuri":3196,"minic":3197,"Ġà´Īà´ª":3198,"Ġsou":3199,"à´¨à´¯à´¨":3200,"Ġsankar":3201,"midhun":3202,"oob":3203,"yang":3204,"à´°à´±":3205,"sat":3206,"dak":3207,"Ġà´Ĩà´²":3208,"stad":3209,"Ġpp":3210,"jy":3211,"Ø§Ø²":3212,"Ġbo":3213,"vad":3214,"yen":3215,"rova":3216,"eendran":3217,"jayakumar":3218,"à´¨à´¹":3219,"sabu":3220,"oi":3221,"dic":3222,"rusho":3223,"oth":3224,"vek":3225,"narayanan":3226,"amri":3227,"ajmal":3228,"khe":3229,"Ġlakshmi":3230,"manuel":3231,"pla":3232,"Ġà´µà´¤":3233,"ammal":3234,"Ã³n":3235,"Ã¼r":3236,"akshay":3237,"Ġà´ªà´±à´®":3238,"jiya":3239,"prath":3240,"ans":3241,"Ġkk":3242,"hong":3243,"wol":3244,"fah":3245,"Ġpradeep":3246,"ws":3247,"ule":3248,"bash":3249,"mole":3250,"mac":3251,"Ġsivan":3252,"venu":3253,"Ġran":3254,"à´¸à´£":3255,"yong":3256,"Ġà´µà´²":3257,"saritha":3258,"Ãª":3259,"Ã©n":3260,"à´¦à´²":3261,"Ġraghavan":3262,"neem":3263,"Ġasha":3264,"Ġsasidharan":3265,"Ġvarughese":3266,"moh":3267,"eira":3268,"liam":3269,"tara":3270,"andi":3271,"à´ľà´ķ":3272,"sankar":3273,"thong":3274,"bibin":3275,"Ġfran":3276,"Ġnan":3277,"Ġà´ªà´³":3278,"lavi":3279,"gad":3280,"kham":3281,"riac":3282,"hau":3283,"kum":3284,"Ġaf":3285,"deepthi":3286,"Ġà´ħà´ª":3287,"god":3288,"Ġdil":3289,"ÐµÑĢ":3290,"à´İàµ½à´¦":3291,"madi":3292,"Ġkala":3293,"Ġismail":3294,"à´Ĩà´Ĺ":3295,"reji":3296,"amala":3297,"robin":3298,"Ð¸Ñı":3299,"à´°à´¡":3300,"ariya":3301,"sayyid":3302,"ian":3303,"à´°à´£à´µ":3304,"laiman":3305,"Ġtomy":3306,"gopala":3307,"ÅĤa":3308,"ahammad":3309,"nima":3310,"priyan":3311,"foor":3312,"Ñį":3313,"hitha":3314,"Ġyo":3315,"sona":3316,"à´ķà´¯":3317,"Ġbas":3318,"tina":3319,"io":3320,"won":3321,"ming":3322,"ÙĪÙĥ":3323,"ade":3324,"nah":3325,"aram":3326,"shra":3327,"olu":3328,"sreejith":3329,"lini":3330,"Ġmichael":3331,"shou":3332,"à´ľà´¯à´®":3333,"bet":3334,"ves":3335,"yad":3336,"flo":3337,"à´±à´µ":3338,"à´¹à´¤":3339,"tana":3340,"Ãł":3341,"Ã¦":3342,"rau":3343,"sov":3344,"Ġvala":3345,"kamal":3346,"ratheesh":3347,"reeshma":3348,"ÄŁlu":3349,"dine":3350,"wis":3351,"mov":3352,"met":3353,"subra":3354,"beth":3355,"hassan":3356,"Äĥ":3357,"annie":3358,"à´¤àµ»à´¸":3359,"Ø§ÙĨÙĬ":3360,"dina":3361,"rini":3362,"lio":3363,"thiru":3364,"ie":3365,"à´ĭ":3366,"ill":3367,"dio":3368,"sanu":3369,"vari":3370,"àµ»à´¸à´¨":3371,"à´¶à´ķ":3372,"moideen":3373,"sya":3374,"Ġti":3375,"geethu":3376,"sumayya":3377,"zzi":3378,"aswin":3379,"Ġkab":3380,"Ġviswana":3381,"parambil":3382,"bis":3383,"lla":3384,"à´°à´·":3385,"diq":3386,"net":3387,"leedharan":3388,"à´Ńà´¦":3389,"fari":3390,"abo":3391,"dom":3392,"Ġà´ªà´µ":3393,"vit":3394,"dini":3395,"endra":3396,"Ġmartin":3397,"angel":3398,"sheeda":3399,"hala":3400,"satheesh":3401,"rayil":3402,"Ġkaru":3403,"balan":3404,"ges":3405,"ÅĻ":3406,"vet":3407,"cht":3408,"ds":3409,"omana":3410,"à´¬à´¤":3411,"Ġà´Ĺà´£":3412,"seema":3413,"Ġalias":3414,"andy":3415,"Ġpaulose":3416,"indu":3417,"Ġkareem":3418,"Ġsukumaran":3419,"Ġà´ħàµ»":3420,"ÙĪØ¯":3421,"Ġà´¸à´°":3422,"Ġpala":3423,"biji":3424,"à´´à´ķ":3425,"ÃŃn":3426,"ppen":3427,"sing":3428,"à´§àµ¼à´®":3429,"yesh":3430,"cheva":3431,"said":3432,"Ġpee":3433,"Ġjoshy":3434,"mia":3435,"shiji":3436,"gadan":3437,"lova":3438,"valappil":3439,"iny":3440,"aboobacker":3441,"Ġah":3442,"Ġsubra":3443,"Ġshar":3444,"bari":3445,"à´¤à´ª":3446,"sche":3447,"Ġfi":3448,"Ġstan":3449,"àµįâĢĮ.":3450,"illi":3451,"Ġshibu":3452,"prasanna":3453,"ori":3454,"jila":3455,"Ø§ÙĨØ¯":3456,"cs":3457,"ĠàµĨ":3458,"Ġskar":3459,"gia":3460,"reni":3461,"mariyam":3462,"à´īà´¦":3463,"bles":3464,"mada":3465,"chang":3466,"Ġdevassy":3467,"stro":3468,"dique":3469,"Ġdevasia":3470,"via":3471,"mit":3472,"Ġvp":3473,"jincy":3474,"Ġgra":3475,"anto":3476,"rika":3477,"witz":3478,"Ġalexander":3479,"gari":3480,"à´¹à´²":3481,"Ã¼l":3482,"Ġramesh":3483,"sobha":3484,"thesh":3485,"swam":3486,"vithran":3487,"Ġck":3488,"thran":3489,"lat":3490,"ĠØ§ÙĦ":3491,"Ġà´¶àµ¼à´®":3492,"Ġà´«àµ¼à´¹":3493,"à´¨à´°":3494,"sistar":3495,"ppachan":3496,"sit":3497,"janam":3498,"à´±à´¨":3499,"Ġnasar":3500,"sada":3501,"shiju":3502,"art":3503,"guru":3504,"ston":3505,"hui":3506,"à´µà´³à´ª":3507,"Å¡i":3508,"Ð¸Ð¼":3509,"siji":3510,"Ø§Ùĩ":3511,"ÐµÐ½":3512,"Ġà´Ĩàµ»à´¡":3513,"oh":3514,"à´¶à´°":3515,"liji":3516,"pak":3517,"Ġahamed":3518,"umma":3519,"anila":3520,"tten":3521,"basheer":3522,"Ġsul":3523,"maa":3524,"beer":3525,"sik":3526,"à´Ĩàµ½à´«":3527,"deepu":3528,"dali":3529,"gru":3530,"wam":3531,"à´®à´£àµ»":3532,"à´µà´¯":3533,"vindran":3534,"vinu":3535,"zio":3536,"aparna":3537,"Ġbhaskaran":3538,"kowska":3539,"Ġshaju":3540,"Ġthasni":3541,"bia":3542,"yesu":3543,"bour":3544,"ira":3545,"jala":3546,"song":3547,"nandas":3548,"Ġchrist":3549,"ÅĤo":3550,"Ø§Ø":3551,"Ġashi":3552,"leel":3553,"Ġsathyan":3554,"wami":3555,"sandra":3556,"ffer":3557,"Ġpoulose":3558,"Ġyu":3559,"eeda":3560,"shree":3561,"bey":3562,"danan":3563,"vor":3564,"dhara":3565,"seela":3566,"fathimathul":3567,"oney":3568,"archana":3569,"ret":3570,"eru":3571,"Ġnamb":3572,"dona":3573,"adar":3574,"jju":3575,"aisha":3576,"czyk":3577,"shira":3578,"girija":3579,"abeevi":3580,"kiewicz":3581,"Ġvijay":3582,"àµ»à´¹":3583,"âĢĵ":3584,"abhilash":3585,"Ġpriya":3586,"Ġjos":3587,"wala":3588,"hath":3589,"Ġà´¹à´¬":3590,"pari":3591,"à´µà´£":3592,"mum":3593,"Ġrahim":3594,"àµĢà´Ĥ.":3595,"àµºà´®":3596,"sty":3597,"Ð¹":3598,"are":3599,"alin":3600,"saranya":3601,"aran":3602,"viji":3603,"gio":3604,"Ø¨ÙĬØ±":3605,"Ġà´īà´¸":3606,"savan":3607,"Ġkutti":3608,"dayan":3609,"Ġpal":3610,"krist":3611,"wor":3612,"kau":3613,"Ġther":3614,"reetha":3615,"rence":3616,"cruz":3617,"ouse":3618,"shitha":3619,"Ġà´ĩà´®":3620,"sum":3621,"kow":3622,"meyer":3623,"rahiman":3624,"à´¹à´£":3625,"mahesh":3626,"moy":3627,"phe":3628,"xon":3629,"amrutha":3630,"wee":3631,"Ġsreedharan":3632,"Ġsaleem":3633,"Ġshafi":3634,"à´®à´²à´¤":3635,"karthi":3636,"Ġmerin":3637,"Ã¶l":3638,"gir":3639,"Ð°Ñħ":3640,"glo":3641,"Ġà´¨à´Ł":3642,"ciu":3643,"rajani":3644,"rushothaman":3645,"doo":3646,"rol":3647,"dhul":3648,"Ð°Ñģ":3649,"sathya":3650,"zul":3651,"sli":3652,"Ð°Ð±":3653,"uddheen":3654,"james":3655,"ac":3656,"à´²à´¬":3657,"nitha":3658,"àµ½à´¬àµ¼à´Ł":3659,"à´²à´¨":3660,"Ġjay":3661,"Ġprem":3662,"aiswarya":3663,"kavitha":3664,"cken":3665,"beegam":3666,"poulou":3667,"rami":3668,"hun":3669,"ase":3670,"zek":3671,"jasmin":3672,"sibi":3673,"eswaran":3674,"à´£àµ»à´ķ":3675,"dru":3676,"nit":3677,"charo":3678,"sem":3679,"dÃ©":3680,"à´¤à´¬":3681,"tos":3682,"bani":3683,"feld":3684,"bl":3685,"rong":3686,"mans":3687,"yis":3688,"ers":3689,"elson":3690,"jishnu":3691,"ksha":3692,"bos":3693,"Ġdominic":3694,"ap":3695,"à´¬à´¨":3696,"ald":3697,"ÃŃk":3698,"gina":3699,"à´«à´¹":3700,"Ġkv":3701,"tay":3702,"Ġkurup":3703,"fred":3704,"Ø§Øº":3705,"nidhin":3706,"Ġmoideen":3707,"edi":3708,"kee":3709,"peter":3710,"shahana":3711,"ÙĨÙĬ":3712,"thankam":3713,"ganesh":3714,"annamma":3715,"Ġà´İà´¡":3716,"rohi":3717,"renu":3718,"mos":3719,"Ġà´Ĩà´¬":3720,"bincy":3721,"ux":3722,"tang":3723,"à´·à´±à´«":3724,"chil":3725,"sova":3726,"Ġannie":3727,"à´ĩàµ¼à´«":3728,"baida":3729,"veettil":3730,"Ġkabeer":3731,"vakaran":3732,"Å£":3733,"à´İà´¯":3734,"lina":3735,"Ġradhakrishnan":3736,"jijo":3737,"geo":3738,"cky":3739,"burg":3740,"jibin":3741,"Ġsaf":3742,"Ġà´ĩà´ķ":3743,"à´ķà´¨à´ķ":3744,"thre":3745,"menon":3746,"babi":3747,"neenu":3748,"tong":3749,"riz":3750,"à´ªà´Ł":3751,"subin":3752,"Ġpalli":3753,"kamala":3754,"xin":3755,"sami":3756,"sandeep":3757,"pathi":3758,"Ġà´ľà´¯à´ķ":3759,"Ġmk":3760,"à´ķàµ¾":3761,"sakk":3762,"padma":3763,"fei":3764,"Ã«":3765,"dei":3766,"à´¤àµ¼à´ľ":3767,"dey":3768,"sajith":3769,"nei":3770,"nikov":3771,"rem":3772,"omina":3773,"àµ¼à´µà´¤":3774,"arath":3775,"à´ıà´¬":3776,"laksh":3777,"Ġrajesh":3778,"eswari":3779,"à´®à´ª":3780,"à´¨à´³":3781,"Ġà´ªà´°":3782,"skyi":3783,"Ġdamo":3784,"saju":3785,"Ø§Ø´":3786,"vali":3787,"shor":3788,"sachin":3789,"àµĥà´¾":3790,"Ġrajendran":3791,"sivan":3792,"phil":3793,"soni":3794,"prema":3795,"ÑĥÑĢ":3796,"minu":3797,"set":3798,"leema":3799,"Ġkunjumon":3800,"lekshmi":3801,"kom":3802,"àµ¾à´¸àµº":3803,"pram":3804,"vimal":3805,"indira":3806,"all":3807,"ook":3808,"esan":3809,"mayil":3810,"musthafa":3811,"greeshma":3812,"à´Ĺà´°":3813,"ttam":3814,"Ġkt":3815,"Ġaboobacker":3816,"thala":3817,"Ġsajeev":3818,"rema":3819,"baiju":3820,"qbal":3821,"Ġà´Ĩà´¯":3822,"rod":3823,"Ġbinu":3824,"Ġà´īà´¤":3825,"ÙĬÙĨÙĬ":3826,"ÙĪØ¨":3827,"Ã¡k":3828,"gl":3829,"seer":3830,"khin":3831,"meier":3832,"sira":3833,"khov":3834,"jameela":3835,"gis":3836,"Ġà´¨à´¬":3837,"à´¡à´¯":3838,"dong":3839,"maru":3840,"Ġà´·à´°":3841,"old":3842,"feeque":3843,"sooraj":3844,"kla":3845,"osh":3846,"Ġmp":3847,"ØªÙĬ":3848,"gangadharan":3849,"sev":3850,"cheriya":3851,"Ġsatheesh":3852,"à´¸à´ª":3853,"à´³à´®":3854,"Ġà´ħàµ½à´«":3855,"Ġthankappan":3856,"fir":3857,"à´¸à´¸":3858,"hay":3859,"Ġà´ĩà´²":3860,"Ġà´ľà´¯à´°":3861,"dhil":3862,"Ð¸Ñģ":3863,"sudheen":3864,"rum":3865,"Ġsid":3866,"neena":3867,"martin":3868,"kunja":3869,"yudhan":3870,"idu":3871,"Ġà´ķà´Ł":3872,"à´«àµ¼à´¹":3873,"à´³à´®àµ»":3874,"mesan":3875,"kundan":3876,"bily":3877,"ese":3878,"wrence":3879,"à´®àµ¾":3880,"Ġà´°à´ľ":3881,"gran":3882,"à´±àµ»":3883,"elizabath":3884,"à´ľà´Ĺà´¦":3885,"ob":3886,"Ġbose":3887,"eda":3888,"Ġir":3889,"thum":3890,"à´¨à´ļ":3891,"aleena":3892,"lik":3893,"à´®à´¦à´²":3894,"line":3895,"pis":3896,"dem":3897,"kong":3898,"habu":3899,"oora":3900,"suhara":3901,"reh":3902,"Ġtp":3903,"Ġkuruvila":3904,"if":3905,"rya":3906,"ning":3907,"eld":3908,"rajeev":3909,"Ġpereira":3910,"ille":3911,"megha":3912,"Ġjon":3913,"àµĥàµģ":3914,"pramod":3915,"bhayi":3916,"rim":3917,"dheesh":3918,"ckar":3919,"zhen":3920,"à´¤à´¯":3921,"muru":3922,"soosa":3923,"swar":3924,"abou":3925,"gokul":3926,"à´Łà´¯":3927,"rez":3928,"Ġprabhu":3929,"uz":3930,"bad":3931,"Ġchar":3932,"Ġunnikrishnan":3933,"rÃ©":3934,"ssi":3935,"Ġajith":3936,"Ġgopalan":3937,"isa":3938,"Ġyou":3939,"raveendran":3940,"anish":3941,"Ġashok":3942,"beeba":3943,"bÃ©":3944,"Ġà´µà´³à´ª":3945,"vish":3946,"Ġasharaf":3947,"ama":3948,"beck":3949,"Ġaslam":3950,"Ġahammad":3951,"Ø¨ÙĦ":3952,"ora":3953,"Ġfilipp":3954,"banu":3955,"à´Ĺà´²":3956,"tak":3957,"Ġjasmin":3958,"Ġjor":3959,"shek":3960,"op":3961,"alla":3962,"jem":3963,"vivek":3964,"hem":3965,"Ġmath":3966,"Ø³ÙĬ":3967,"Ð°Ð²":3968,"sud":3969,"tei":3970,"mey":3971,"ÐµÐ»":3972,"ach":3973,"matha":3974,"susan":3975,"ÙĪÙĬ":3976,"Ġnoushad":3977,"ls":3978,"à´¾à´Ĥ.":3979,"rincy":3980,"non":3981,"anne":3982,"naveen":3983,"swapna":3984,"lalitha":3985,"mÃ©":3986,"zari":3987,"merin":3988,"à¦®":3989,"Ġdeva":3990,"saum":3991,"juna":3992,"abhijith":3993,"à´¸à´¨àµ½":3994,"ebin":3995,"zeena":3996,"Ø¶":3997,"Ã¡r":3998,"Ð°Ð³":3999,"pesh":4000,"mand":4001,"Ġjaleel":4002,"Ġà´µà´°":4003,"sura":4004,"Ġandre":4005,"kaya":4006,"wad":4007,"shilpa":4008,"Ġcp":4009,"raghu":4010,"gali":4011,"shibin":4012,"Ã¤r":4013,"Ġà´Ĳà´ª":4014,"kus":4015,"jia":4016,"dad":4017,"à´·àµ¼à´®":4018,"Ġkamal":4019,"tol":4020,"ksan":4021,"treesa":4022,"zade":4023,"vineetha":4024,"ÙĬÙĦÙĬ":4025,"gle":4026,"way":4027,"à¦°":4028,"Ã¼n":4029,"à¦¿":4030,"young":4031,"sekharan":4032,"ÙĥØ±":4033,"Ġkannan":4034,"yk":4035,"ttas":4036,"Ġà´ħà´¨à´¸":4037,"à´Ĩàµ½à´µ":4038,"manian":4039,"à´¸à´¹à´¦":4040,"kkos":4041,"kaew":4042,"lijo":4043,"Ġà´¡à´¬":4044,"Ġà´«à´¸":4045,"sabitha":4046,"Ġsajan":4047,"Ã¶n":4048,"sruthy":4049,"Ġyohannan":4050,"meenu":4051,"Ġjamal":4052,"roshan":4053,"Ġrafi":4054,"nick":4055,"Ġvk":4056,"pei":4057,"Ġpuli":4058,"ojini":4059,"à´ªà´Ļ":4060,"mash":4061,"diyan":4062,"ult":4063,"Ġjob":4064,"ÃŃkovÃ¡":4065,"yat":4066,"Ġrajeev":4067,"klin":4068,"à´¦à´±":4069,"Ġà´¸à´®à´¦":4070,"Ġrachel":4071,"sila":4072,"yaz":4073,"kia":4074,"alavi":4075,"Ġcyriac":4076,"swe":4077,"sebastian":4078,"laila":4079,"hanas":4080,"sameera":4081,"Ġkuruvilla":4082,"soorya":4083,"brin":4084,"à´¶à´µàµ»":4085,"Ġshy":4086,"cl":4087,"à´ķà´®à´£":4088,"Ġmura":4089,"Ø¬ÙĬ":4090,"à´İà´«":4091,"gat":4092,"danandan":4093,"à´¶à´¬à´°":4094,"iu":4095,"murali":4096,"unneesa":4097,"Ġech":4098,"neera":4099,"sson":4100,"sery":4101,"Ġprabhakaran":4102,"lot":4103,"Ġà´īà´¦":4104,"lad":4105,"sef":4106,"rav":4107,"thri":4108,"lima":4109,"Ġlukose":4110,"ple":4111,"teena":4112,"purayil":4113,"ding":4114,"ramesh":4115,"dau":4116,"ziya":4117,"à´°à´ķàµ»":4118,"jali":4119,"Ġvada":4120,"sujatha":4121,"à´£à´¦":4122,"Ġkara":4123,"Ø³ÙĥÙĬ":4124,"asma":4125,"gow":4126,"à´ķà´ķ":4127,"Ġtk":4128,"Ñİ":4129,"Ġkai":4130,"achu":4131,"àµĢ.":4132,"thaf":4133,"shamna":4134,"kkodan":4135,"any":4136,"Ġprakas":4137,"ardhanan":4138,"Ġà´ħà´¹":4139,"fau":4140,"est":4141,"tem":4142,"rich":4143,"soon":4144,"renjith":4145,"Ġà´ħàµ»à´µàµ¼":4146,"qa":4147,"àµ½à´±":4148,"faisal":4149,"preethi":4150,"ashik":4151,"Ġthambi":4152,"ppy":4153,"nav":4154,"à´Ĺàµ»":4155,"tah":4156,"Ġammal":4157,"à´¬à´¸":4158,"Ġchetti":4159,"dana":4160,"ft":4161,"ful":4162,"gand":4163,"Ġkm":4164,"baran":4165,"charoen":4166,"sek":4167,"Ġachari":4168,"harsha":4169,"Ġgopala":4170,"nna":4171,"prasanth":4172,"reya":4173,"lem":4174,"Ġà´ľà´¯à´ª":4175,"chem":4176,"rana":4177,"gayath":4178,"Ġbaiju":4179,"tcha":4180,"àµ»à´¤":4181,"rash":4182,"nakaran":4183,"muha":4184,"scho":4185,"Ã¨re":4186,"à´°à´²":4187,"Ġà´¸à´¹à´¦":4188,"karu":4189,"nimisha":4190,"hanu":4191,"fna":4192,"à´¶à´®":4193,"shari":4194,"sheva":4195,"Ġmanuel":4196,"ish":4197,"moto":4198,"lilly":4199,"Ġgafoor":4200,"nithya":4201,"kim":4202,"Ġmah":4203,"sreedevi":4204,"zon":4205,"tavi":4206,"vino":4207,"dileep":4208,"madu":4209,"viÄį":4210,"salman":4211,"anupa":4212,"Ġmadhavan":4213,"darsan":4214,"Ġtreesa":4215,"Ø§Ø±ÙĬ":4216,"ary":4217,"escu":4218,"à´ªà´°à´®":4219,"dos":4220,"skÃ½":4221,"sav":4222,"Ġà´®à´ŀ":4223,"mark":4224,"dit":4225,"wn":4226,"dhose":4227,"Ġshu":4228,"à´ĸàµ»":4229,"yeong":4230,"rinu":4231,"ping":4232,"shri":4233,"shyla":4234,"ayshath":4235,"ett":4236,"sor":4237,"chee":4238,"ananda":4239,"skÃ¡":4240,"ÙħÙĬ":4241,"ying":4242,"reshmi":4243,"naseema":4244,"fia":4245,"rit":4246,"cic":4247,"à´ľà´²à´ķ":4248,"nappan":4249,"Ġkumaran":4250,"dja":4251,"deri":4252,"quin":4253,"Ġgopinath":4254,"oun":4255,"feeda":4256,"jessy":4257,"haus":4258,"à´īà´¦à´¯":4259,"renju":4260,"august":4261,"Ġkhader":4262,"Ġvalappil":4263,"dze":4264,"jari":4265,"pov":4266,"bna":4267,"bila":4268,"emi":4269,"ens":4270,"nikova":4271,"rabi":4272,"eeb":4273,"raseena":4274,"fle":4275,"Ġà´µà´Łà´ķ":4276,"à´īà´¤":4277,"Ġsundar":4278,"à´ħà´·à´±à´«":4279,"mariyamma":4280,"eck":4281,"ameer":4282,"roth":4283,"vera":4284,"eal":4285,"ij":4286,"yara":4287,"low":4288,"gno":4289,"sna":4290,"Ġà´±à´ľ":4291,"tie":4292,"isha":4293,"à´®à´¶":4294,"Ġnavas":4295,"tsev":4296,"varsha":4297,"Ġameen":4298,"hoo":4299,"à´®à´¹à´®":4300,"shine":4301,"Ġvenugopal":4302,"ffi":4303,"Ġravindran":4304,"ole":4305,"à´«à´°":4306,"kawa":4307,"sethu":4308,"hua":4309,"kris":4310,"rug":4311,"à´Ńà´°à´¤":4312,"rajitha":4313,"Ġà´®àµ»à´¸":4314,"chali":4315,"tau":4316,"amani":4317,"ÐµÑĤ":4318,"jerin":4319,"ØªØ±":4320,"ÙĳÙĲ":4321,"adarsh":4322,"nathan":4323,"cheng":4324,"shiya":4325,"spi":4326,"ely":4327,"soniya":4328,"kandy":4329,"mri":4330,"È©":4331,"hail":4332,"ckson":4333,"beh":4334,"Ġthara":4335,"salim":4336,"Ġaj":4337,"Ġà´Ķà´¸":4338,"kula":4339,"nig":4340,"sundar":4341,"abdel":4342,"kavya":4343,"cheal":4344,"aju":4345,"deli":4346,"inoy":4347,"Ġlin":4348,"gaard":4349,"Ġjyo":4350,"qing":4351,"àµ»à´¬":4352,"à´°à´Ĺ":4353,"Ġshareef":4354,"yumma":4355,"silpa":4356,"prince":4357,"anee":4358,"chon":4359,"jithu":4360,"desh":4361,"sangeetha":4362,"à´£à´¨":4363,"subi":4364,"josh":4365,"andra":4366,"Ġà´¤à´¯":4367,"à´Ĭ":4368,"nak":4369,"à´ŀà´ª":4370,"oos":4371,"gus":4372,"Ġharis":4373,"Ġsreeni":4374,"Ġveettil":4375,"ilal":4376,"olo":4377,"Ð¿":4378,"reeja":4379,"cre":4380,"Ð°Ð·":4381,"dab":4382,"zana":4383,"à´¤àµ¾":4384,"Ġpm":4385,"gues":4386,"à´±àµº":4387,"mont":4388,"ashraf":4389,"fara":4390,"yl":4391,"Ð¸Ð´":4392,"maj":4393,"suwan":4394,"chak":4395,"haris":4396,"jobin":4397,"vander":4398,"Ġà´ªà´¯à´¸":4399,"ammu":4400,"kot":4401,"faseela":4402,"Ġsudhakaran":4403,"sony":4404,"fard":4405,"tintu":4406,"Ġpv":4407,"rek":4408,"kanth":4409,"Ð¾Ð½":4410,"tee":4411,"jomon":4412,"pati":4413,"Ġà´ķà´®à´²":4414,"kada":4415,"Ġap":4416,"Ġhar":4417,"Ġrodri":4418,"sudheesh":4419,"bam":4420,"dl":4421,"ting":4422,"kola":4423,"jaga":4424,"ool":4425,"Ġà´®à´²":4426,"shima":4427,"Ġpath":4428,"à´łà´¤":4429,"badi":4430,"Ġharidas":4431,"Ġshajahan":4432,"à´µà´³":4433,"sajan":4434,"riyan":4435,"aux":4436,"long":4437,"ingal":4438,"zim":4439,"cai":4440,"Ġhaneefa":4441,"cla":4442,"ura":4443,"anton":4444,"bie":4445,"hema":4446,"Ġsouza":4447,"à´¨à´¡":4448,"rasheed":4449,"Ġsaha":4450,"ffy":4451,"anvar":4452,"wie":4453,"salini":4454,"nara":4455,"pes":4456,"elin":4457,"à´°à´®àµ»":4458,"salma":4459,"Ġjabbar":4460,"ÇĲ":4461,"aneesha":4462,"sumesh":4463,"jath":4464,"bhas":4465,"Ġreghu":4466,"Ġparveen":4467,"kurupp":4468,"rahi":4469,"sow":4470,"à´īà´²":4471,"etz":4472,"Ġiqbal":4473,"jing":4474,"thulasi":4475,"roos":4476,"pod":4477,"anus":4478,"viÄįi":4479,"Ġsain":4480,"ets":4481,"valsala":4482,"balakrishnan":4483,"fem":4484,"gang":4485,"naya":4486,"papa":4487,"chit":4488,"gie":4489,"Ġpappachan":4490,"Ġmathyu":4491,"pru":4492,"ambika":4493,"sobhana":4494,"à´±à´ª":4495,"cour":4496,"yd":4497,"à´®à´ļ":4498,"oof":4499,"yoon":4500,"Ġgee":4501,"à´¿à´Ĥ.":4502,"Ġpavithran":4503,"shokan":4504,"izal":4505,"priyanka":4506,"ada":4507,"kÃ¶":4508,"àµ½à´¹":4509,"jayasree":4510,"Ġputhiya":4511,"muhsina":4512,"amritha":4513,"fur":4514,"rafi":4515,"thila":4516,"lich":4517,"Ð¸Ð¹":4518,"Ġandrews":4519,"ahamed":4520,"vici":4521,"zah":4522,"skij":4523,"Ġshen":4524,"à´ħà´Ĺ":4525,"nasar":4526,"rev":4527,"karn":4528,"kang":4529,"à´Ĺà´¤àµ»":4530,"ÙĥÙĪÙģ":4531,"Ġste":4532,"haritha":4533,"àµ»à´Ł":4534,"à´¯à´µ":4535,"à´ħàµ½à´¤":4536,"mova":4537,"ØªØ´":4538,"à´±à´«àµ¼":4539,"rahmath":4540,"ÅĪ":4541,"xiao":4542,"shyni":4543,"Ġmanoharan":4544,"cir":4545,"feng":4546,"gÃ¶":4547,"hami":4548,"zain":4549,"zab":4550,"surendran":4551,"nish":4552,"à´ĸà´²":4553,"chard":4554,"sajna":4555,"lit":4556,"mira":4557,"stine":4558,"bak":4559,"Ġraman":4560,"louis":4561,"inen":4562,"ajeesh":4563,"à´¬à´°":4564,"jie":4565,"lom":4566,"Ġmaha":4567,"ig":4568,"hib":4569,"thish":4570,"basil":4571,"Ġakbar":4572,"thee":4573,"safiya":4574,"àµ¼à´¨":4575,"Ð¸Ðº":4576,"Ġummer":4577,"vat":4578,"anisha":4579,"yims":4580,"yuan":4581,"dorf":4582,"à´¬à´¶":4583,"dum":4584,"schu":4585,"Ġjorj":4586,"ati":4587,"sadi":4588,"moor":4589,"bakh":4590,"faz":4591,"Ġsah":4592,"seera":4593,"sand":4594,"chik":4595,"à´ĩà´Ł":4596,"aw":4597,"thres":4598,"shaha":4599,"à´Ĩàµ¼à´·":4600,"shaila":4601,"Ġjolly":4602,"Ġhashim":4603,"à¦¨":4604,"xy":4605,"chat":4606,"Ġà´ĵà´®à´¨":4607,"gani":4608,"hameed":4609,"pher":4610,"Ø²ÙĬ":4611,"Ġbhatt":4612,"Ġshereef":4613,"cca":4614,"Êĩ":4615,"Ø¨Ø§Ø±":4616,"janaki":4617,"à´¨à´Ł":4618,"tini":4619,"sharon":4620,"à´ĩàµ¼à´·":4621,"à´µà´¹":4622,"raya":4623,"Ø£":4624,"lev":4625,"Ġnazeer":4626,"aar":4627,"cun":4628,"ttir":4629,"reefa":4630,"ummer":4631,"selin":4632,"marajan":4633,"well":4634,"ses":4635,"Ġsil":4636,"bayeva":4637,"Ġlaksh":4638,"Ġusman":4639,"mati":4640,"prabhu":4641,"vineeth":4642,"shinu":4643,"soosan":4644,"cro":4645,"tari":4646,"Ġraghu":4647,"thira":4648,"shanth":4649,"afsal":4650,"ooja":4651,"ÙħØ§Ø±":4652,"princy":4653,"rakhi":4654,"guer":4655,"sla":4656,"anagha":4657,"gom":4658,"nanda":4659,"vela":4660,"Ġzachariah":4661,"Ġà´ļà´ķ":4662,"wit":4663,"à´¤àµ½":4664,"sijo":4665,"thur":4666,"ug":4667,"det":4668,"braham":4669,"dhana":4670,"kandan":4671,"yes":4672,"radhi":4673,"diri":4674,"sanal":4675,"ummar":4676,"jasna":4677,"Ġkunja":4678,"akash":4679,"arn":4680,"muba":4681,"chira":4682,"kunjamma":4683,"feli":4684,"saleena":4685,"bali":4686,"hul":4687,"pÃ©":4688,"âĢĮâĢĮ":4689,"ÑıÐ½":4690,"Ġvaliya":4691,"kei":4692,"Ġanu":4693,"roni":4694,"à´ľà´¦":4695,"gireesh":4696,"Ġjaison":4697,"à´¸à´ľà´¨":4698,"jaseela":4699,"johnson":4700,"Ġdileep":4701,"abooba":4702,"à´Ĩàµ»à´±à´£":4703,"Ġramakrishnan":4704,"hasan":4705,"sajeev":4706,"Ġbal":4707,"shia":4708,"phonsa":4709,"dji":4710,"sulai":4711,"ttathil":4712,"Ġgrace":4713,"fang":4714,"à´Łà´®":4715,"Ġno":4716,"farsana":4717,"Ġdamodaran":4718,"nayana":4719,"à´ħà´¬à´¦":4720,"à´Ĳà´±":4721,"ula":4722,"Ð¼Ñĥ":4723,"damo":4724,"okan":4725,"rathan":4726,"safa":4727,"jur":4728,"Ġaji":4729,"yammal":4730,"Ġass":4731,"chinchu":4732,"gayathri":4733,"Ġà´ªà´°à´®":4734,"Ġà´ħà´ľà´¯":4735,"dheer":4736,"Ġsheri":4737,"ment":4738,"aga":4739,"veli":4740,"shama":4741,"vidhya":4742,"nova":4743,"skaia":4744,"Ġwilliam":4745,"vithri":4746,"rasiya":4747,"bhag":4748,"devas":4749,"zz":4750,"sankaran":4751,"Ø³ÙĪ":4752,"arif":4753,"Ġkunji":4754,"ryan":4755,"ush":4756,"hiya":4757,"à´īà´¬":4758,"hoff":4759,"rang":4760,"com":4761,"band":4762,"kÃ¼":4763,"à´¯à´¬":4764,"Ġanas":4765,"ramla":4766,"app":4767,"mili":4768,"pl":4769,"à´µà´ľ":4770,"shun":4771,"kolo":4772,"âĢĲ":4773,"à´ħàµ»à´ľ":4774,"à´¨à´·":4775,"à´¶àµ¼à´®":4776,"sih":4777,"soma":4778,"tseva":4779,"Ġyoo":4780,"Ġjosaf":4781,"shiny":4782,"veera":4783,"savi":4784,"Ġjana":4785,"Ġthay":4786,"kamp":4787,"ilson":4788,"Ġchem":4789,"ÙģÙĬ":4790,"à´Īà´¶":4791,"jong":4792,"kya":4793,"vong":4794,"maji":4795,"jain":4796,"Ġvarma":4797,"phel":4798,"Ø¨Ø§":4799,"Ġmohandas":4800,"madhavan":4801,"sheng":4802,"zhad":4803,"fla":4804,"kry":4805,"peng":4806,"hat":4807,"Ġpurushothaman":4808,"tya":4809,"amir":4810,"venka":4811,"ÙĪØ±ÙĬ":4812,"phael":4813,"fab":4814,"moli":4815,"sophi":4816,"zie":4817,"Ġdivakaran":4818,"sainaba":4819,"namp":4820,"savitha":4821,"shafi":4822,"nive":4823,"Ġvela":4824,"bhanu":4825,"elu":4826,"rance":4827,"Ø¯ÙĪ":4828,"Ø¯Ø±":4829,"aya":4830,"à´°à´«":4831,"à´¶à´°àµº":4832,"thay":4833,"Ġeapen":4834,"wini":4835,"eno":4836,"subaida":4837,"Ġà´ħàµ¼à´·":4838,"ÙĥØ§Ø±":4839,"Ġà´Īà´¶":4840,"lovÃ¡":4841,"ÙĥØ§":4842,"Ġunnithan":4843,"fousiya":4844,"Ġabu":4845,"à´³à´Ļ":4846,"hur":4847,"Ã¶m":4848,"nafeesa":4849,"bry":4850,"Ġgu":4851,"à´«à´¸à´²":4852,"ambily":4853,"santhi":4854,"kkil":4855,"pez":4856,"pathumma":4857,"joyi":4858,"panikkar":4859,"ouseph":4860,"udaya":4861,"Ñĭ":4862,"mie":4863,"Ġshetti":4864,"à´µà´®":4865,"ummul":4866,"xiang":4867,"niyil":4868,"soman":4869,"Ġmali":4870,"Ġshetty":4871,"à´ĭà´·":4872,"ise":4873,"mae":4874,"Ġà´µà´Ł":4875,"sonu":4876,"Ã¡kovÃ¡":4877,"rier":4878,"ranjith":4879,"palan":4880,"christy":4881,"Ġnampyar":4882,"ins":4883,"rand":4884,"hed":4885,"Ġsulaiman":4886,"bena":4887,"poli":4888,"Ġnizar":4889,"vuthar":4890,"gni":4891,"mson":4892,"dika":4893,"mid":4894,"Ð´Ð¸Ð½":4895,"à´¬à´°àµ»":4896,"à´«à´¹à´¦":4897,"mori":4898,"dat":4899,"nimmy":4900,"Ġsharma":4901,"naga":4902,"Ġprin":4903,"bov":4904,"lincy":4905,"resmi":4906,"bhar":4907,"sinu":4908,"Ġthasneem":4909,"bli":4910,"anth":4911,"hadi":4912,"rasi":4913,"uddin":4914,"mathu":4915,"thankamma":4916,"Ġroshan":4917,"à´Ĳà´¸à´ķ":4918,"Ġumma":4919,"Ġfaisal":4920,"ramachandran":4921,"libin":4922,"baum":4923,"ville":4924,"à´ªà´¦":4925,"Ġà´ķàµ¼à´¤":4926,"ttappan":4927,"muneer":4928,"athulya":4929,"Ġber":4930,"Ã£o":4931,"sharaf":4932,"vimala":4933,"kah":4934,"emil":4935,"ÙĬÙĨØ§":4936,"haib":4937,"gopika":4938,"cze":4939,"uri":4940,"anjal":4941,"vada":4942,"à´ľà´¯à´ļà´¨":4943,"Ġà´ĩà´¨":4944,"Ġmuraleedharan":4945,"dala":4946,"Ġgangadharan":4947,"shvili":4948,"à¦Ĩ":4949,"filipp":4950,"amitha":4951,"ÙĪÙĨÙĬ":4952,"Ġkhadar":4953,"ajin":4954,"ammini":4955,"à´³à´µ":4956,"chacko":4957,"anusha":4958,"ffin":4959,"febin":4960,"fro":4961,"à´ľàµ½":4962,"viya":4963,"sreeni":4964,"lÃ¼":4965,"stru":4966,"phin":4967,"sheera":4968,"mercy":4969,"dell":4970,"arsha":4971,"hamsa":4972,"ÙĬÙĨØº":4973,"saumya":4974,"siju":4975,"baz":4976,"soja":4977,"ismail":4978,"iyamma":4979,"noushad":4980,"jafar":4981,"Ð¸ÑĤ":4982,"Ġà´īà´²":4983,"Ġkarim":4984,"peri":4985,"Ġà´®à´®":4986,"moosa":4987,"bang":4988,"david":4989,"leo":4990,"sheh":4991,"Ġgovindan":4992,"bby":4993,"klo":4994,"àµ½à´Ł":4995,"nesh":4996,"asif":4997,"ÌĪ":4998,"safee":4999}