{"<s>":0,"<pad>":1,"</s>":2,"<unk>":3,"<mask>":4,"!":5,"\"":6,"#":7,"$":8,"%":9,"&":10,"'":11,"(":12,")":13,"*":14,"+":15,",":16,"-":17,".":18,"/":19,"0":20,"1":21,"2":22,"3":23,"4":24,"5":25,"6":26,"7":27,"8":28,"9":29,":":30,";":31,"<":32,"=":33,">":34,"?":35,"@":36,"A":37,"B":38,"C":39,"D":40,"E":41,"F":42,"G":43,"H":44,"I":45,"J":46,"K":47,"L":48,"M":49,"N":50,"O":51,"P":52,"Q":53,"R":54,"S":55,"T":56,"U":57,"V":58,"W":59,"X":60,"Y":61,"Z":62,"[":63,"\\":64,"]":65,"^":66,"_":67,"`":68,"a":69,"b":70,"c":71,"d":72,"e":73,"f":74,"g":75,"h":76,"i":77,"j":78,"k":79,"l":80,"m":81,"n":82,"o":83,"p":84,"q":85,"r":86,"s":87,"t":88,"u":89,"v":90,"w":91,"x":92,"y":93,"z":94,"{":95,"|":96,"}":97,"~":98,"¡":99,"¢":100,"£":101,"¤":102,"¥":103,"¦":104,"§":105,"¨":106,"©":107,"ª":108,"«":109,"¬":110,"®":111,"¯":112,"°":113,"±":114,"²":115,"³":116,"´":117,"µ":118,"¶":119,"·":120,"¸":121,"¹":122,"º":123,"»":124,"¼":125,"½":126,"¾":127,"¿":128,"À":129,"Á":130,"Â":131,"Ã":132,"Ä":133,"Å":134,"Æ":135,"Ç":136,"È":137,"É":138,"Ê":139,"Ë":140,"Ì":141,"Í":142,"Î":143,"Ï":144,"Ð":145,"Ñ":146,"Ò":147,"Ó":148,"Ô":149,"Õ":150,"Ö":151,"×":152,"Ø":153,"Ù":154,"Ú":155,"Û":156,"Ü":157,"Ý":158,"Þ":159,"ß":160,"à":161,"á":162,"â":163,"ã":164,"ä":165,"å":166,"æ":167,"ç":168,"è":169,"é":170,"ê":171,"ë":172,"ì":173,"í":174,"î":175,"ï":176,"ð":177,"ñ":178,"ò":179,"ó":180,"ô":181,"õ":182,"ö":183,"÷":184,"ø":185,"ù":186,"ú":187,"û":188,"ü":189,"ý":190,"þ":191,"ÿ":192,"Ā":193,"ā":194,"Ă":195,"ă":196,"Ą":197,"ą":198,"Ć":199,"ć":200,"Ĉ":201,"ĉ":202,"Ċ":203,"ċ":204,"Č":205,"č":206,"Ď":207,"ď":208,"Đ":209,"đ":210,"Ē":211,"ē":212,"Ĕ":213,"ĕ":214,"Ė":215,"ė":216,"Ę":217,"ę":218,"Ě":219,"ě":220,"Ĝ":221,"ĝ":222,"Ğ":223,"ğ":224,"Ġ":225,"ġ":226,"Ģ":227,"ģ":228,"Ĥ":229,"ĥ":230,"Ħ":231,"ħ":232,"Ĩ":233,"ĩ":234,"Ī":235,"ī":236,"Ĭ":237,"ĭ":238,"Į":239,"į":240,"İ":241,"ı":242,"Ĳ":243,"ĳ":244,"Ĵ":245,"ĵ":246,"Ķ":247,"ķ":248,"ĸ":249,"Ĺ":250,"ĺ":251,"Ļ":252,"ļ":253,"Ľ":254,"ľ":255,"Ŀ":256,"ŀ":257,"Ł":258,"ł":259,"Ń":260,"à´":261,"an":262,"ha":263,"àµ":264,"ar":265,"ra":266,"in":267,"ee":268,"al":269,"sh":270,"th":271,"ma":272,"àµį":273,"na":274,"er":275,"sa":276,"Ġà´":277,"il":278,"ya":279,"à´¿":280,"en":281,"ch":282,"ku":283,"ri":284,"as":285,"el":286,"ÙĬ":287,"Ø§":288,"Ð°":289,"on":290,"ja":291,"la":292,"sha":293,"ka":294,"ko":295,"su":296,"vi":297,"mu":298,"ham":299,"ji":300,"ÙĪ":301,"Ġp":302,"jo":303,"mo":304,"and":305,"se":306,"tt":307,"si":308,"ÙĨ":309,"me":310,"ab":311,"mar":312,"ul":313,"ni":314,"man":315,"ran":316,"à´¸":317,"Ø±":318,"à´¾":319,"va":320,"à¦":321,"da":322,"re":323,"ro":324,"Ð°Ð":325,"li":326,"di":327,"Ð¸":328,"mi":329,"à´®":330,"han":331,"Ġk":332,"ara":333,"yan":334,"ba":335,"ju":336,"hi":337,"de":338,"tha":339,"ki":340,"àµģ":341,"st":342,"à´¨":343,"un":344,"or":345,"med":346,"Ġra":347,"bi":348,"Ġjo":349,"san":350,"am":351,"Ġku":352,"hammed":353,"Ø³":354,"ou":355,"ÙĦ":356,"thi":357,"àµ»":358,"ÑĢ":359,"fa":360,"ru":361,"Ø¨":362,"Ġb":363,"le":364,"Ã¡":365,"Ġv":366,"à´°":367,"Øª":368,"ala":369,"à´ķ":370,"shi":371,"à´¤":372,"ana":373,"ali":374,"ge":375,"Ùİ":376,"dha":377,"Ùĥ":378,"Ġna":379,"so":380,"pa":381,"Ð¸Ð":382,"Ùħ":383,"ani":384,"hu":385,"kk":386,"Ġa":387,"à´ľ":388,"Ø¯":389,"Ġsa":390,"ov":391,"es":392,"za":393,"ree":394,"cha":395,"àµĨ":396,"ari":397,"ga":398,"Ðµ":399,"à´¯":400,"een":401,"ti":402,"Ġs":403,"mma":404,"àµĢ":405,"ini":406,"àµĭ":407,"ta":408,"van":409,"ina":410,"mad":411,"ne":412,"à´±":413,"à´¦":414,"eer":415,"he":416,"is":417,"à´·":418,"do":419,"ÑĤ":420,"Ñĥ":421,"go":422,"Ġsu":423,"Ð»":424,"ke":425,"je":426,"oo":427,"ir":428,"àµ¼":429,"Ø§ÙĨ":430,"à´¬":431,"chand":432,"Ġma":433,"muhammed":434,"Ġm":435,"Ñģ":436,"abd":437,"kh":438,"Ð½":439,"Ð¼":440,"à´²":441,"nan":442,"dh":443,"à´µ":444,"Ġà´İ":445,"kar":446,"ila":447,"rish":448,"to":449,"kha":450,"kumar":451,"lu":452,"ph":453,"wa":454,"à´ª":455,"jan":456,"pp":457,"zi":458,"Ġsha":459,"kun":460,"bin":461,"Ġmo":462,"Ġà´ķ":463,"Øº":464,"ÙĴ":465,"Ġja":466,"gu":467,"em":468,"thu":469,"kov":470,"Ùģ":471,"pra":472,"du":473,"Ø´":474,"à´Ĥ":475,"hammad":476,"Ġjose":477,"Ã©":478,"eena":479,"tti":480,"dan":481,"Ð´":482,"Ġn":483,"pi":484,"ol":485,"mal":486,"Ġd":487,"Ã¶":488,"abdul":489,"eri":490,"ÙĲ":491,"yi":492,"ci":493,"Ã¼":494,"be":495,"chi":496,"ang":497,"hn":498,"à´¹":499,"Ġf":500,"ski":501,"Ġà´ª":502,"ÙĬÙĨ":503,"bu":504,"ska":505,"Ð¾":506,"gi":507,"Ùĩ":508,"te":509,"lo":510,"ck":511,"Ġmu":512,"yar":513,"ing":514,"son":515,"fi":516,"bo":517,"mari":518,"ew":519,"ed":520,"àµ½":521,"end":522,"Ø²":523,"Ġan":524,"jee":525,"àµĩ":526,"Ñħ":527,"mon":528,"à´ħ":529,"krish":530,"Ø¬":531,"Ñı":532,"mohammed":533,"Ð°Ð½":534,"Ġvi":535,"Ġ.":536,"ei":537,"Ùı":538,"sk":539,"eli":540,"jin":541,"Ġà´¸":542,"ÙĪÙĨ":543,"Å¡":544,"à¦¾":545,"po":546,"co":547,"us":548,"zh":549,"mol":550,"rin":551,"muhammad":552,"Ø§Ø±":553,"Ð³":554,"vin":555,"à´£":556,"bha":557,"Ġjohn":558,"ong":559,"dee":560,"ili":561,"sree":562,"geor":563,"Ġsi":564,"sar":565,"dhan":566,"Ġsh":567,"à´Ł":568,"illa":569,"et":570,"ÃŃ":571,"kka":572,"Ġpa":573,"george":574,"pu":575,"nu":576,"ine":577,"chandran":578,"arg":579,"Ġà´ľ":580,"Ð¸Ð½":581,"yu":582,"ber":583,"à´«":584,"Ġc":585,"abu":586,"das":587,"Ðº":588,"à´¶":589,"Ġà´µ":590,"Ð°ÑĢ":591,"à§":592,"thew":593,"Ġha":594,"Ġkumar":595,"qu":596,"dar":597,"val":598,"âĢ":599,"Ġjoseph":600,"ho":601,"ksh":602,"tty":603,"tho":604,"ÑĦ":605,"wi":606,"Äį":607,"sal":608,"kan":609,"yo":610,"Ġgeorge":611,"chu":612,"zha":613,"ren":614,"ev":615,"Ġkun":616,"bra":617,"Ġg":618,"Ġt":619,"ovÃ¡":620,"no":621,"ÙĪØ±":622,"Ġka":623,"Ð·":624,"Ø§ÙĦ":625,"Ð²":626,"Ġmathew":627,"Äĩ":628,"Ġch":629,"Ġko":630,"raj":631,"krishnan":632,"Ã¨":633,"Ġman":634,"kova":635,"Ð°Ð»":636,"anu":637,"nee":638,"ÑĮ":639,"tta":640,"Ġj":641,"vas":642,"ek":643,"yil":644,"bas":645,"lin":646,"tz":647,"à´¿.":648,"riya":649,"ca":650,"eela":651,"ez":652,"tu":653,"à´ļ":654,"Ġpra":655,"dharan":656,"ÙĬØ±":657,"sch":658,"Ġnair":659,"sin":660,"cz":661,"hese":662,"ak":663,"arayan":664,"than":665,"Ġde":666,"var":667,"um":668,"Ã§":669,"ale":670,"ye":671,"Ġà´®":672,"nas":673,"Ð±":674,"Ġkuri":675,"cy":676,"Ùĳ":677,"ram":678,"amma":679,"fathi":680,"Ġvarg":681,"os":682,"far":683,"dran":684,"Ġab":685,"erin":686,"eesh":687,"bar":688,"sy":689,"har":690,"ben":691,"à´İ":692,"ia":693,"ny":694,"ton":695,"eera":696,"Ġe":697,"wan":698,"pal":699,"math":700,"ad":701,"jaya":702,"Ġem":703,"veen":704,"Ã³":705,"id":706,"Ġabdul":707,"eng":708,"yya":709,"mas":710,"jayan":711,"andi":712,"zar":713,"gha":714,"jas":715,"fee":716,"ÅŁ":717,"Ġro":718,"ÙĥÙĪ":719,"min":720,"ry":721,"ce":722,"jesh":723,"Ø¹":724,"Ġmari":725,"à´Ĺ":726,"karan":727,"chan":728,"jay":729,"Ġà´İà´¸":730,"ze":731,"kkal":732,"sand":733,"Ġpi":734,"Ġvarghese":735,"mala":736,"der":737,"mani":738,"hamed":739,"shan":740,"Ð°Ð¼":741,"chandra":742,"Ġba":743,"vya":744,"bal":745,"kshmi":746,"war":747,"ÙĬÙĦ":748,"yamma":749,"Ġcha":750,"ova":751,"Ġali":752,"ela":753,"gee":754,"din":755,"Ġse":756,"Ð°ÑĤ":757,"mer":758,"him":759,"dheen":760,"jith":761,"ÙĬØª":762,"my":763,"hana":764,"has":765,"gan":766,"den":767,"ur":768,"Ġà´¬":769,"pan":770,"yam":771,"Çİ":772,"sham":773,"unni":774,"Ġke":775,"kutti":776,"Ġla":777,"sz":778,"Ġbi":779,"lan":780,"ÑĥÐ»":781,"asi":782,"ly":783,"jitha":784,"Ã¸":785,"ÑĪ":786,"Ġi":787,"à´³":788,"dhu":789,"ÙĬØ³":790,"men":791,"par":792,"ban":793,"Ġni":794,"endran":795,"raham":796,"Ġgo":797,"sky":798,"ger":799,"ve":800,"Ġbabu":801,"kovÃ¡":802,"ler":803,"aram":804,"sam":805,"sun":806,"rah":807,"ath":808,"mes":809,"ppan":810,"zu":811,"cob":812,"she":813,"Ġmar":814,"zhi":815,"ai":816,"àµĤ":817,"oni":818,"Ġas":819,"tan":820,"Ġdi":821,"sen":822,"che":823,"ulla":824,"Ø©":825,"ff":826,"Ã¤":827,"kko":828,"shee":829,"ilo":830,"Ġkrish":831,"nand":832,"kal":833,"shad":834,"sr":835,"Ø§Øª":836,"mini":837,"saf":838,"Ġu":839,"Ġpilla":840,"àµĪ":841,"lal":842,"Ġkuru":843,"del":844,"Ġà´ħ":845,"Ġnarayan":846,"Ġso":847,"Ø§Ø³":848,"ria":849,"tin":850,"thy":851,"kutty":852,"shy":853,"Ġraj":854,"à´ŀ":855,"jose":856,"ÙĪØ³":857,"Ġà´Ĩ":858,"Ð¸Ð»":859,"à¦®":860,"Ð¶":861,"pe":862,"à¦¿":863,"Ð°Ð´":864,"Ġabraham":865,"àµ¾":866,"eem":867,"Ð°Ð¹":868,"ste":869,"à¦°":870,"Ġmohan":871,"kkar":872,"ppa":873,"Ġà´±":874,"fathima":875,"ris":876,"ud":877,"gh":878,"Ġda":879,"Ġji":880,"Ø§Ùħ":881,"gar":882,"yas":883,"Ġsan":884,"by":885,"Ġre":886,"ok":887,"ÙĪÙĦ":888,"andan":889,"arun":890,"à´®à´¦":891,"uli":892,"à´Ĩ":893,"Ġmuhammed":894,"hara":895,"Ġes":896,"à´¹à´®":897,"Ġjacob":898,"ras":899,"vo":900,"bil":901,"sai":902,"aru":903,"au":904,"Ð¸Ð¼":905,"jer":906,"rani":907,"tony":908,"anj":909,"bee":910,"dhar":911,"chin":912,"kul":913,"Ġva":914,"ser":915,"ÐµÑĢ":916,"alex":917,"dra":918,"Ã±":919,"our":920,"vel":921,"Ġshi":922,"Ãª":923,"ash":924,"ÙĤ":925,"ÙĥÙĬ":926,"ttil":927,"Ġchandran":928,"resh":929,"mp":930,"thomas":931,"ven":932,"sad":933,"Ø¨Ø±":934,"Ġà´Ł":935,"zo":936,"Ġkurian":937,"Ġpu":938,"que":939,"ung":940,"esh":941,"ter":942,"samma":943,"jam":944,"âĢĻ":945,"Ġjoy":946,"anda":947,"Ġam":948,"od":949,"ver":950,"à¦¨":951,"lee":952,"cker":953,"hari":954,"Ġmol":955,"Ð¸ÑĢ":956,"Ø§Ø¯":957,"yn":958,"ØŃ":959,"shu":960,"Ġà´¨":961,"lai":962,"cu":963,"bel":964,"Ã¯":965,"Ġpaul":966,"Ñį":967,"oj":968,"yana":969,"alim":970,"sil":971,"ene":972,"ssa":973,"we":974,"bai":975,"àµº":976,"sara":977,"devi":978,"ÐµÐ½":979,"win":980,"khil":981,"ay":982,"sel":983,"shah":984,"ah":985,"kose":986,"Ð°Ð±":987,"ees":988,"tian":989,"kas":990,"ty":991,"viÄĩ":992,"brahim":993,"à¦Ĩ":994,"Ð°Ð²":995,"ÑĥÑĢ":996,"ttan":997,"vil":998,"Ġpillai":999,"Ġdas":1000,"mohan":1001,"jar":1002,"sheer":1003,"Ø§ÙĬ":1004,"Ġal":1005,"zhu":1006,"Ð¸Ñı":1007,"iro":1008,"ker":1009,"zhan":1010,"Ð¹":1011,"anna":1012,"Ð°Ñģ":1013,"gen":1014,"skaya":1015,"Ø®":1016,"Ġsebas":1017,"ner":1018,"Ð°Ñħ":1019,"aj":1020,"Å¾":1021,"Ġnas":1022,"Ġfer":1023,"Ġfa":1024,"sou":1025,"jon":1026,"Ġsree":1027,"zab":1028,"ell":1029,"à´§":1030,"kki":1031,"dhi":1032,"krishna":1033,"Ġsun":1034,"pre":1035,"veendran":1036,"sah":1037,"raf":1038,"ron":1039,"fer":1040,"suma":1041,"Ä±":1042,"khi":1043,"jes":1044,"ella":1045,"ÅĤ":1046,"Ġar":1047,"mya":1048,"àµĨ.":1049,"Ø§Ø¨":1050,"mil":1051,"rai":1052,"eni":1053,"dy":1054,"cko":1055,"Ġalex":1056,"sta":1057,"jamma":1058,"Ð¸Ñģ":1059,"sath":1060,"beer":1061,"abi":1062,"car":1063,"kara":1064,"ose":1065,"thil":1066,"fe":1067,"smi":1068,"Ġshaji":1069,"sana":1070,"vy":1071,"mun":1072,"mai":1073,"Ġel":1074,"Ð°Ð·":1075,"per":1076,"Ġjames":1077,"shin":1078,"Ġrah":1079,"ÙĪØª":1080,"jun":1081,"las":1082,"Ġpo":1083,"hai":1084,"Ġnayar":1085,"br":1086,"rath":1087,"ÙĪÙģ":1088,"mana":1089,"zade":1090,"pin":1091,"Ġza":1092,"fel":1093,"à´°àµ»":1094,"sw":1095,"âĢĮ":1096,"Ç§":1097,"Ġnarayanan":1098,"khan":1099,"Ãº":1100,"Ð°Ð³":1101,"ken":1102,"siya":1103,"Ġmohammed":1104,"Ã¡n":1105,"Ġmi":1106,"nath":1107,"deeja":1108,"deen":1109,"àµĥ":1110,"at":1111,"zan":1112,"Ñİ":1113,"nie":1114,"kin":1115,"Ã½":1116,"Ġà´Ĩàµ¼":1117,"yath":1118,"Ġje":1119,"saj":1120,"pri":1121,"sho":1122,"anju":1123,"ÅĦ":1124,"soo":1125,"Ġsal":1126,"len":1127,"mel":1128,"jai":1129,"aby":1130,"à¦Ĩà¦":1131,"fas":1132,"kku":1133,"ashi":1134,"sudha":1135,"à´ĸ":1136,"rama":1137,"ÙĳÙİ":1138,"Ġà´İàµ»":1139,"ÐµÐ»":1140,"zy":1141,"Ġà´°":1142,"divya":1143,"Ġeli":1144,"eva":1145,"ros":1146,"Ġkrishnan":1147,"it":1148,"Ã¼l":1149,"see":1150,"bou":1151,"ÙĬØ¯":1152,"anas":1153,"kumari":1154,"Ġph":1155,"Ã«":1156,"à´¡":1157,"tto":1158,"cho":1159,"hal":1160,"ky":1161,"Ġbin":1162,"Ø§Ùĥ":1163,"à¦¦":1164,"Ø§ÙĪ":1165,"Ð¿":1166,"vid":1167,"dhanya":1168,"jeev":1169,"ag":1170,"ranc":1171,"cher":1172,"mah":1173,"mann":1174,"ilip":1175,"Ġcheri":1176,"àµ»à´¸":1177,"yani":1178,"Ġpani":1179,"gun":1180,"Ø³Øª":1181,"nar":1182,"joseph":1183,"à§ģ":1184,"Ġfernand":1185,"babu":1186,"ÐµÑĤ":1187,"vic":1188,"kunju":1189,"manu":1190,"Ð¼Ñĥ":1191,"aksha":1192,"neha":1193,"Ġfar":1194,"gal":1195,"àµį.":1196,"endra":1197,"eth":1198,"himan":1199,"mohamed":1200,"Ġsebastian":1201,"inger":1202,"res":1203,"lil":1204,"ik":1205,"asha":1206,"jeesh":1207,"jisha":1208,"Ñĭ":1209,"dil":1210,"Ø´ÙĬ":1211,"manju":1212,"Ġmon":1213,"wal":1214,"Ġben":1215,"ÙĪÙħ":1216,"eh":1217,"shnu":1218,"Ġà´¤":1219,"ts":1220,"ander":1221,"eep":1222,"vis":1223,"deep":1224,"jana":1225,"Ð¸Ð¹":1226,"lam":1227,"Ð¾Ð½":1228,"ÑıÐ½":1229,"Ã£":1230,"Ø±ÙĬ":1231,"tra":1232,"tar":1233,"ttu":1234,"à¦¹":1235,"priya":1236,"kash":1237,"Ġchacko":1238,"ÄŁ":1239,"Ġsara":1240,"kou":1241,"cio":1242,"Ð¸Ðº":1243,"abdu":1244,"chen":1245,"tsu":1246,"à¦²":1247,"araj":1248,"Ġmary":1249,"saji":1250,"Ġvijayan":1251,"Ġkunju":1252,"elli":1253,"mir":1254,"kari":1255,"Ġl":1256,"rist":1257,"orn":1258,"jil":1259,"Ġkar":1260,"fu":1261,"fathimath":1262,"sur":1263,"athi":1264,"had":1265,"pilla":1266,"Ã¢":1267,"ayi":1268,"Ġkal":1269,"her":1270,"Ġrajan":1271,"Ð´Ð¸Ð½":1272,"neethu":1273,"gra":1274,"bro":1275,"dr":1276,"à¦¸":1277,"uk":1278,"kunji":1279,"ster":1280,"Ã¥":1281,"radha":1282,"à´ħà´¨":1283,"Ġto":1284,"the":1285,"lar":1286,"geetha":1287,"Ġhu":1288,"af":1289,"Ġbiju":1290,"tham":1291,"tsi":1292,"ÙĨÙĬ":1293,"Ġunni":1294,"kur":1295,"andre":1296,"àµįâĢĮ":1297,"rancis":1298,"Ġkha":1299,"Ġgan":1300,"ooba":1301,"ÙĪØ¯":1302,"Ġkuria":1303,"ÙĦÙĬ":1304,"ele":1305,"wska":1306,"asu":1307,"Ġkutty":1308,"zadeh":1309,"zhe":1310,"Ġà´·":1311,"Ġbee":1312,"bala":1313,"Ġsaji":1314,"Ġantony":1315,"vik":1316,"eef":1317,"Ġmen":1318,"lakshmi":1319,"Ġamma":1320,"jini":1321,"vich":1322,"Ġsusan":1323,"Ġper":1324,"sari":1325,"iz":1326,"oli":1327,"vu":1328,"wski":1329,"alan":1330,"tri":1331,"ppu":1332,"rou":1333,"hya":1334,"kkan":1335,"kuru":1336,"jor":1337,"Ð°Ðº":1338,"tana":1339,"dis":1340,"Ġsasi":1341,"fo":1342,"Ġphilip":1343,"à´Ń":1344,"Ġshe":1345,"Ġnam":1346,"biju":1347,"john":1348,"eed":1349,"joy":1350,"ten":1351,"ulu":1352,"ss":1353,"Ġchandra":1354,"roo":1355,"madhu":1356,"cheri":1357,"hab":1358,"jad":1359,"Ø·":1360,"Ð¸Ð´":1361,"yoo":1362,"Øµ":1363,"oy":1364,"Ø§Ùģ":1365,"im":1366,"Ġli":1367,"neesa":1368,"Ġkuruv":1369,"dal":1370,"rov":1371,"pol":1372,"Ġvin":1373,"Ġsam":1374,"vathi":1375,"Ġdevas":1376,"nisha":1377,"Ġmuhammad":1378,"vijaya":1379,"fal":1380,"tte":1381,"kai":1382,"lah":1383,"ÐµÐ¹":1384,"dath":1385,"Ġkuriakose":1386,"Ġmaria":1387,"à§į":1388,"pour":1389,"les":1390,"ent":1391,"kumaran":1392,"gel":1393,"à´Ļ":1394,"kath":1395,"bri":1396,"Ð¸ÑĤ":1397,"sain":1398,"eel":1399,"Ñĩ":1400,"Ġraveendran":1401,"berg":1402,"Ġkhan":1403,"Ø§ÙĨÙĬ":1404,"gr":1405,"kshi":1406,"rali":1407,"gam":1408,"von":1409,"Ġen":1410,"yk":1411,"gopal":1412,"zabeth":1413,"eez":1414,"Äįi":1415,"aswa":1416,"stha":1417,"sau":1418,"raji":1419,"Ø¯ÙĬ":1420,"ard":1421,"Ġvar":1422,"say":1423,"mesh":1424,"ÙĪØ¨":1425,"nayar":1426,"Ġbaby":1427,"pree":1428,"char":1429,"ÐµÐº":1430,"varg":1431,"Ġri":1432,"jen":1433,"ey":1434,"tul":1435,"dam":1436,"Ġpar":1437,"Ġo":1438,"Ġdevi":1439,"Ġbala":1440,"Ð¼Ð¸Ð½":1441,"az":1442,"rad":1443,"kor":1444,"jal":1445,"nai":1446,"gust":1447,"ley":1448,"des":1449,"seena":1450,"Ġsham":1451,"eter":1452,"shaji":1453,"kala":1454,"fr":1455,"Ġbha":1456,"chai":1457,"poul":1458,"Ġmariya":1459,"reesa":1460,"fan":1461,"sneha":1462,"Ġkrishna":1463,"sir":1464,"dou":1465,"stan":1466,"Ġrahman":1467,"kkandi":1468,"Ã¶l":1469,"tre":1470,"avi":1471,"av":1472,"pala":1473,"Ã²":1474,"narayan":1475,"moo":1476,"nik":1477,"zin":1478,"vana":1479,"devan":1480,"ÙĬÙĨÙĬ":1481,"jos":1482,"gli":1483,"aba":1484,"Ġthomas":1485,"ann":1486,"era":1487,"lekha":1488,"ayisha":1489,"Ġh":1490,"Ġlal":1491,"yal":1492,"Ġsath":1493,"Ġr":1494,"vai":1495,"ÙħØ§ÙĨ":1496,"kiran":1497,"à¦¬":1498,"wu":1499,"dev":1500,"gin":1501,"Ġki":1502,"hira":1503,"shai":1504,"athira":1505,"Ġjohnson":1506,"Ġraju":1507,"nir":1508,"Ġdani":1509,"mohanan":1510,"thar":1511,"sudh":1512,"kir":1513,"nes":1514,"thra":1515,"Ġrama":1516,"sri":1517,"pon":1518,"ghu":1519,"ovin":1520,"Ð»Ð°":1521,"zer":1522,"Ġya":1523,"ppil":1524,"dor":1525,"Ø§Ø²":1526,"thul":1527,"Ġsalim":1528,"Ġfrancis":1529,"kra":1530,"kis":1531,"swa":1532,"deepa":1533,"bor":1534,"chel":1535,"ÙĪÙĥ":1536,"à¦ķ":1537,"kri":1538,"Ð¾ÑĢ":1539,"Ø§Øº":1540,"Ãł":1541,"Ð¸Ð½Ð°":1542,"à´ħà´¬":1543,"Ġanna":1544,"lou":1545,"sthafa":1546,"Ġham":1547,"tr":1548,"àµ¯":1549,"don":1550,"Ã¨re":1551,"Ġzacha":1552,"aji":1553,"Ġlu":1554,"Ġau":1555,"kkutti":1556,"Ġhari":1557,"mina":1558,"fran":1559,"skii":1560,"pel":1561,"eesha":1562,"kon":1563,"bhu":1564,"sali":1565,"muham":1566,"sandhya":1567,"Ã¦":1568,"akh":1569,"hin":1570,"lau":1571,"Ġash":1572,"gil":1573,"Ġmani":1574,"sim":1575,"nur":1576,"Ç§lu":1577,"bre":1578,"Ġnou":1579,"Ġsherin":1580,"Ġaz":1581,"mary":1582,"kunj":1583,"ano":1584,"à´£àµ»":1585,"gadharan":1586,"bath":1587,"anan":1588,"Ã¶r":1589,"naj":1590,"à´ľà´¯":1591,"Ġum":1592,"Ġà´¡":1593,"nou":1594,"wy":1595,"ÑĨ":1596,"Ø§ÙĨØ¯":1597,"à´¾à´Ĥ":1598,"Ġfernandez":1599,"hel":1600,"kho":1601,"wo":1602,"pen":1603,"param":1604,"Ġjaya":1605,"usha":1606,"à§Ģ":1607,"cham":1608,"Ġmenon":1609,"kam":1610,"Ġjas":1611,"eettil":1612,"hl":1613,"hid":1614,"gÃ¼":1615,"tani":1616,"sumayya":1617,"mul":1618,"eema":1619,"zel":1620,"nam":1621,"à´¯àµ¼":1622,"haji":1623,"tas":1624,"hul":1625,"Ġsar":1626,"à¦¤":1627,"pr":1628,"sindhu":1629,"ssain":1630,"og":1631,"ahammed":1632,"ral":1633,"Ã¬":1634,"Ø³ÙĬ":1635,"wil":1636,"lei":1637,"eu":1638,"bert":1639,"Ø¨ÙĬ":1640,"siri":1641,"zhen":1642,"angal":1643,"eira":1644,"sti":1645,"dhanan":1646,"rekha":1647,"nair":1648,"Ø«":1649,"aldo":1650,"lath":1651,"jyo":1652,"alli":1653,"Äĥ":1654,"à´Ĥ.":1655,"nia":1656,"fiya":1657,"jel":1658,"à´¸à´«":1659,"Ġchand":1660,"qi":1661,"Ġsudha":1662,"Ġann":1663,"jina":1664,"Ġcherian":1665,"Ġà´«":1666,"akhil":1667,"Ð´Ð¶":1668,"ks":1669,"diya":1670,"tor":1671,"vara":1672,"bur":1673,"hol":1674,"zen":1675,"Ġsoman":1676,"anil":1677,"xavi":1678,"Ġrose":1679,"kr":1680,"sis":1681,"Ð°Ð¸":1682,"gy":1683,"Ġà´ļ":1684,"meri":1685,"gre":1686,"sia":1687,"amal":1688,"Ð°ÑĦ":1689,"str":1690,"à´İà´¸":1691,"Ġsuresh":1692,"ino":1693,"Ð¾Ð»":1694,"sak":1695,"sab":1696,"Ã¨s":1697,"Ã¶z":1698,"ØªÙĬ":1699,"sheed":1700,"Ġju":1701,"til":1702,"sto":1703,"Ġà´¶":1704,"nikhil":1705,"vani":1706,"Ø§Ø¬":1707,"ideen":1708,"mei":1709,"thodi":1710,"maya":1711,"Ġmohanan":1712,"Ġabdulla":1713,"vitha":1714,"hir":1715,"oop":1716,"Ġelizabeth":1717,"dasan":1718,"giri":1719,"Ġsamu":1720,"akshay":1721,"ÙĪÙĬ":1722,"mariya":1723,"ÑħÐ°Ð¼":1724,"oz":1725,"Ã´":1726,"rabi":1727,"unneesa":1728,"à§Ł":1729,"athul":1730,"pat":1731,"Ġpre":1732,"shar":1733,"àµĹ":1734,"mou":1735,"Ġrahiman":1736,"raja":1737,"antony":1738,"vÃ¡":1739,"mat":1740,"Ġpanicker":1741,"mara":1742,"Ġibrahim":1743,"Ġbasheer":1744,"Ġkan":1745,"mitha":1746,"dani":1747,"ÃŃn":1748,"Ð°Ð±Ð´":1749,"hui":1750,"àµ¼à´ľ":1751,"anand":1752,"ous":1753,"lis":1754,"Ġme":1755,"ÙĬØªØ´":1756,"fana":1757,"ØºØ±":1758,"madha":1759,"leela":1760,"Ġpara":1761,"xi":1762,"shna":1763,"Ġbhas":1764,"chana":1765,"gol":1766,"adi":1767,"dt":1768,"kol":1769,"ero":1770,"vishnu":1771,"Ġven":1772,"ere":1773,"bon":1774,"alakshmi":1775,"à´¿à´Ĥ":1776,"nis":1777,"Ġmadha":1778,"hida":1779,"Ø§Ùĩ":1780,"hy":1781,"ÐµÐ´":1782,"sherin":1783,"zhad":1784,"star":1785,"eg":1786,"thosh":1787,"kand":1788,"Ġdo":1789,"cka":1790,"àµĬ":1791,"mur":1792,"Ġbai":1793,"kke":1794,"Ġaugust":1795,"Ġtom":1796,"vand":1797,"ÄŁlu":1798,"rat":1799,"Ġkp":1800,"pani":1801,"rajesh":1802,"pil":1803,"kunjamma":1804,"naz":1805,"ewi":1806,"ÙĪØ²":1807,"shana":1808,"pet":1809,"à´²à´ķ":1810,"Ġpeter":1811,"zak":1812,"bindu":1813,"para":1814,"fin":1815,"ttar":1816,"ÙĪÙĨÙĬ":1817,"daran":1818,"Ġhan":1819,"à´®à´¸":1820,"cia":1821,"hil":1822,"wang":1823,"sher":1824,"bir":1825,"Ġprasad":1826,"khar":1827,"Ð¸Ð·":1828,"dri":1829,"khadeeja":1830,"sini":1831,"alappil":1832,"sheela":1833,"rahul":1834,"tel":1835,"shil":1836,"anitha":1837,"à¦ľ":1838,"Ġkumari":1839,"xavier":1840,"sasi":1841,"alla":1842,"sey":1843,"Ġà´²":1844,"lÃ©":1845,"Å£":1846,"Ø§Ø´":1847,"mam":1848,"sani":1849,"sunil":1850,"Ġà´¹":1851,"jeevan":1852,"Ġsur":1853,"ghi":1854,"stin":1855,"joo":1856,"pas":1857,"Ġpan":1858,"ÙĬÙĨØº":1859,"noor":1860,"eendran":1861,"ariya":1862,"jis":1863,"Ġjan":1864,"push":1865,"jit":1866,"skiy":1867,"zal":1868,"zil":1869,"yer":1870,"gor":1871,"yen":1872,"aliya":1873,"sru":1874,"Ġà´¦":1875,"kkadan":1876,"sya":1877,"smitha":1878,"kuttan":1879,"Ø³ÙĥÙĬ":1880,"Ġlo":1881,"Ġazeez":1882,"à´¯àµ»":1883,"shid":1884,"reen":1885,"ghavan":1886,"Ġà´¯":1887,"Ġpereira":1888,"gui":1889,"nya":1890,"kl":1891,"ÙĥØ±":1892,"can":1893,"reesh":1894,"ruz":1895,"jahan":1896,"ison":1897,"khu":1898,"hen":1899,"boo":1900,"valdo":1901,"Ġhussain":1902,"liji":1903,"you":1904,"Ð¼Ð°ÑĢ":1905,"Ġbeevi":1906,"isal":1907,"salim":1908,"haran":1909,"kkara":1910,"nel":1911,"shab":1912,"cki":1913,"tal":1914,"fei":1915,"à´¥":1916,"sabi":1917,"suha":1918,"hand":1919,"gas":1920,"Ã³n":1921,"thiya":1922,"Ġdine":1923,"abooba":1924,"Ð¸Ð»ÑĮ":1925,"Ø¨ÙĬØ±":1926,"Ġhaji":1927,"qa":1928,"hra":1929,"tzi":1930,"saha":1931,"ola":1932,"ralee":1933,"gul":1934,"muh":1935,"thiri":1936,"Ġzacharia":1937,"pina":1938,"som":1939,"aria":1940,"Ġbenny":1941,"Ġramachandran":1942,"pro":1943,"Ġrani":1944,"cas":1945,"jorj":1946,"Å¡i":1947,"ĠØ§ÙĦ":1948,"dhya":1949,"one":1950,"Ġdev":1951,"ÑĥÐ½":1952,"Ġkurup":1953,"bay":1954,"hesh":1955,"vijayan":1956,"sul":1957,"kesh":1958,"sob":1959,"zad":1960,"gou":1961,"Ġne":1962,"wong":1963,"Ġkoshy":1964,"cal":1965,"anjana":1966,"Ġradha":1967,"latha":1968,"jeeb":1969,"bair":1970,"dzi":1971,"ewicz":1972,"tis":1973,"veena":1974,"bara":1975,"Ð°Ð»ÑĮ":1976,"Ã¼r":1977,"abdulla":1978,"Ġjay":1979,"Ġram":1980,"Ġtti":1981,"eesa":1982,"arya":1983,"ling":1984,"ÑħÐ°Ð½":1985,"Ġkunhi":1986,"ÑĥÑģ":1987,"rakhi":1988,"soumya":1989,"mano":1990,"Ġbanu":1991,"hannan":1992,"Ġraja":1993,"rei":1994,"kochu":1995,"eefa":1996,"sala":1997,"misha":1998,"kadeeja":1999,"rayil":2000,"ÑĥÐ»Ð»Ð°":2001,"nau":2002,"Ġara":2003,"arifa":2004,"Ð°Ð»Ð¸":2005,"inan":2006,"annie":2007,"namma":2008,"yeva":2009,"hay":2010,"swana":2011,"kharan":2012,"wat":2013,"wen":2014,"mor":2015,"Ø¨ÙĪ":2016,"Ġnazar":2017,"manan":2018,"jani":2019,"thya":2020,"Ġga":2021,"praveen":2022,"Ã©n":2023,"yyan":2024,"wicz":2025,"eiro":2026,"thran":2027,"ÐµÐ²":2028,"Ð¾Ð²":2029,"Ġsunil":2030,"hanas":2031,"daya":2032,"wani":2033,"mez":2034,"pad":2035,"ane":2036,"udheen":2037,"oor":2038,"Ġak":2039,"Ġjohny":2040,"Ġkuruvila":2041,"akhila":2042,"olo":2043,"tou":2044,"nad":2045,"feeq":2046,"Ð¸Ð³":2047,"muhamed":2048,"prabha":2049,"kel":2050,"Ġgopal":2051,"à´ī":2052,"ÅĦska":2053,"Ġahammed":2054,"Ã®":2055,"Ø§Ø":2056,"diq":2057,"aysha":2058,"Ġprakash":2059,"ÅĻ":2060,"sheeja":2061,"Ġjayan":2062,"yid":2063,"rajan":2064,"Ġvasu":2065,"à´ĩ":2066,"sud":2067,"à´¸à´¨":2068,"hr":2069,"kandi":2070,"jyothi":2071,"hee":2072,"à¦«":2073,"kina":2074,"naji":2075,"Ġsai":2076,"kunja":2077,"Ġsurendran":2078,"cin":2079,"Ø²ÙĬ":2080,"muha":2081,"valli":2082,"anagha":2083,"ÙħÙĬ":2084,"Ġmun":2085,"bindhu":2086,"vijay":2087,"vasan":2088,"à¦¶":2089,"raju":2090,"miya":2091,"stad":2092,"vili":2093,"dai":2094,"Ã¼n":2095,"Ġnasar":2096,"Ġroy":2097,"una":2098,"siva":2099,"ØªØ´":2100,"roz":2101,"Ġpon":2102,"àµ¼à´Ĺ":2103,"sreeja":2104,"Ġpoul":2105,"suni":2106,"shim":2107,"sulai":2108,"ØªØ±":2109,"saran":2110,"remya":2111,"Ð°ÑħÐ¼":2112,"mmal":2113,"anjali":2114,"Ġnambi":2115,"dhara":2116,"nor":2117,"haj":2118,"Ã¡k":2119,"hani":2120,"isma":2121,"ÙĪÙĨØº":2122,"key":2123,"rose":2124,"cent":2125,"pun":2126,"jerin":2127,"Ġdavis":2128,"Ġnamp":2129,"ll":2130,"jiji":2131,"ng":2132,"jeed":2133,"Ġvenu":2134,"ril":2135,"ingh":2136,"hon":2137,"kshan":2138,"àµª":2139,"Ġkt":2140,"saa":2141,"mathi":2142,"fai":2143,"wei":2144,"Ø¨ÙĦ":2145,"andrew":2146,"Ð¸Ð±":2147,"thas":2148,"maz":2149,"fre":2150,"arajan":2151,"prasan":2152,"Ð½Ð°":2153,"prasad":2154,"Ġbalan":2155,"mmen":2156,"Ø§ÙĨØº":2157,"Ġala":2158,"ibrahim":2159,"mia":2160,"dhun":2161,"jinu":2162,"angel":2163,"ÃŃk":2164,"Ġsabu":2165,"basheer":2166,"à´ħà´®":2167,"Ã°":2168,"musthafa":2169,"vina":2170,"soor":2171,"bini":2172,"Ġmariam":2173,"ÙĬÙĦÙĬ":2174,"ÅĦski":2175,"cor":2176,"wari":2177,"may":2178,"raveendran":2179,"dav":2180,"Ġà´Ĺ":2181,"tse":2182,"dur":2183,"ÑįÐ»":2184,"okan":2185,"dhin":2186,"thanka":2187,"deva":2188,"qui":2189,"Ġaf":2190,"Ġran":2191,"âĢĵ":2192,"Ġparam":2193,"cil":2194,"dez":2195,"Ø§Ø±ÙĬ":2196,"asim":2197,"Ġden":2198,"josaf":2199,"Ġgangadharan":2200,"nal":2201,"lÃ¶":2202,"ea":2203,"Ġshan":2204,"pha":2205,"ÄĹ":2206,"Ġle":2207,"chari":2208,"mis":2209,"tter":2210,"mada":2211,"varghese":2212,"om":2213,"zhong":2214,"sid":2215,"ood":2216,"à§ĩ":2217,"apar":2218,"ÑĥÑĤ":2219,"Ġsimon":2220,"Ġfathima":2221,"Ġsukumaran":2222,"shida":2223,"Ġsunny":2224,"lla":2225,"tes":2226,"aswathi":2227,"Ø¬ÙĬ":2228,"Ġval":2229,"hman":2230,"reena":2231,"cci":2232,"bina":2233,"Ġpk":2234,"Ġlakshmi":2235,"Ġunnikrishnan":2236,"Ġskari":2237,"stein":2238,"'s":2239,"cÇİ":2240,"asan":2241,"zia":2242,"jn":2243,"raman":2244,"raz":2245,"gri":2246,"à´¸àµ»":2247,"Ð¸ÑĦ":2248,"ÑĥÐ»ÑĮ":2249,"Ġsasidharan":2250,"Ġashraf":2251,"ÙĥØ§":2252,"skÃ½":2253,"Ġchi":2254,"ais":2255,"gon":2256,"yyappan":2257,"bol":2258,"land":2259,"abhi":2260,"Ġbalakrishnan":2261,"Ġdaniel":2262,"Ġaugustine":2263,"Ġxavier":2264,"biji":2265,"sov":2266,"Ġmoo":2267,"kkab":2268,"udeen":2269,"christ":2270,"Ġrajendran":2271,"dia":2272,"sandra":2273,"Ã¡r":2274,"Ð°Ð½Ð´":2275,"sina":2276,"kker":2277,"raleedharan":2278,"Ġdavid":2279,"eetha":2280,"paul":2281,"Ø¨ÙĪØ±":2282,"Ð½ÑĥÑĢ":2283,"ut":2284,"aris":2285,"warya":2286,"jeena":2287,"con":2288,"soni":2289,"koo":2290,"Ġmurali":2291,"tus":2292,"ksha":2293,"kham":2294,"Ġrahim":2295,"fou":2296,"Ø¯Ø±":2297,"Ġrasheed":2298,"pran":2299,"wana":2300,"kÃ¼":2301,"enko":2302,"gn":2303,"ovindan":2304,"andra":2305,"Ġprabha":2306,"Ġnambiar":2307,"fri":2308,"tun":2309,"tro":2310,"keer":2311,"lav":2312,"zheng":2313,"chal":2314,"Ø³ÙĪÙĨ":2315,"Ġsudhakaran":2316,"vindran":2317,"Ġshafi":2318,"pou":2319,"kle":2320,"Ø§Ø±Ø¯":2321,"megha":2322,"cel":2323,"Ġkur":2324,"Ġsalam":2325,"rez":2326,"Ġkuruvilla":2327,"âĢĳ":2328,"dun":2329,"jim":2330,"Ġshah":2331,"Ġmano":2332,"Ġabooba":2333,"Ġà´İàµ½":2334,"lia":2335,"hor":2336,"yohannan":2337,"binu":2338,"Ġrai":2339,"aruna":2340,"haf":2341,"ony":2342,"Ġà´İà´ļ":2343,"dol":2344,"kru":2345,"issa":2346,"ÅĽ":2347,"skÃ¡":2348,"Ġahammad":2349,"Ġren":2350,"à´°à´®":2351,"Ġmathews":2352,"muna":2353,"Ġth":2354,"siji":2355,"geethu":2356,"Ġmadhu":2357,"ttir":2358,"kana":2359,"anjitha":2360,"Ġnoushad":2361,"vath":2362,"arjun":2363,"ÐµÑģ":2364,"eenu":2365,"tov":2366,"kunhi":2367,"steph":2368,"muthu":2369,"vad":2370,"for":2371,"ravi":2372,"Ġsamuel":2373,"gÃ¶":2374,"mod":2375,"ganga":2376,"wer":2377,"bab":2378,"phi":2379,"ameer":2380,"lov":2381,"poo":2382,"ajmal":2383,"mathew":2384,"dhee":2385,"elayu":2386,"rian":2387,"Ġelsa":2388,"Ġannie":2389,"suhara":2390,"wara":2391,"mohammad":2392,"sobha":2393,"reshma":2394,"ula":2395,"meera":2396,"rika":2397,"ÙĥÙĪØ±":2398,"prin":2399,"ttana":2400,"tyan":2401,"à´ļà´¨":2402,"ranj":2403,"vila":2404,"suja":2405,"ÙĪØº":2406,"à´°à´¤":2407,"col":2408,"aro":2409,"bla":2410,"hei":2411,"vol":2412,"vit":2413,"ms":2414,"à´ľàµ»":2415,"Ġvijay":2416,"kavya":2417,"god":2418,"zam":2419,"rag":2420,"yang":2421,"noo":2422,"yel":2423,"Ġgi":2424,"Ġfas":2425,"thana":2426,"jila":2427,"gees":2428,"poulos":2429,"savan":2430,"und":2431,"ÙĥÙĦ":2432,"ÃŃkovÃ¡":2433,"Ġravi":2434,"à´®à´¤":2435,"danandan":2436,"suf":2437,"Ġnaz":2438,"tur":2439,"Ġjal":2440,"subha":2441,"ot":2442,"gadan":2443,"ÙĪØ´":2444,"dira":2445,"glu":2446,"waran":2447,"nil":2448,"ilomina":2449,"kali":2450,"dÃ³":2451,"Ġpala":2452,"Ð°Ð¿":2453,"moni":2454,"rahi":2455,"mand":2456,"gÃ¼l":2457,"à´®à´¨":2458,"bul":2459,"uma":2460,"Ġmerin":2461,"ble":2462,"nov":2463,"rahiman":2464,"Ġkoya":2465,"pillai":2466,"gala":2467,"ouza":2468,"beevi":2469,"bru":2470,"ÑĥÐ·":2471,"fard":2472,"eeth":2473,"Ø¨Ø§Ø±":2474,"à´¸àµº":2475,"à´ħà´ľ":2476,"anila":2477,"shal":2478,"ef":2479,"cer":2480,"hini":2481,"hend":2482,"liya":2483,"Ã¨ne":2484,"sheena":2485,"jithu":2486,"Ġvk":2487,"Ġmanu":2488,"jia":2489,"Ġpoulose":2490,"Ø§ÙĨØª":2491,"ena":2492,"mali":2493,"gl":2494,"narayanan":2495,"kundan":2496,"maria":2497,"thai":2498,"sova":2499,"dul":2500,"shiji":2501,"Ġdil":2502,"ardhanan":2503,"dz":2504,"tam":2505,"mila":2506,"sakk":2507,"tai":2508,"asa":2509,"gla":2510,"Ġradhakrishnan":2511,"shifa":2512,"sruthi":2513,"Ġmala":2514,"Ġmohamed":2515,"bakh":2516,"gna":2517,"ray":2518,"cruz":2519,"ÑĢÐ¾":2520,"nio":2521,"Ġanil":2522,"kÃ¶":2523,"czy":2524,"ÅĪ":2525,"bek":2526,"haraf":2527,"aparna":2528,"Ġvijaya":2529,"oth":2530,"ilipp":2531,"ullah":2532,"nisa":2533,"à´İàµ»":2534,"elayudhan":2535,"nen":2536,"eesan":2537,"ÙħØ§Ø±":2538,"vidya":2539,"Ġabdu":2540,"annamma":2541,"hanu":2542,"Ġgopi":2543,"andrews":2544,"cle":2545,"aa":2546,"mine":2547,"chael":2548,"chuk":2549,"Ġgopina":2550,"sudheer":2551,"ahammad":2552,"Ġalias":2553,"nikov":2554,"sl":2555,"ojini":2556,"feld":2557,"shafee":2558,"vini":2559,"rab":2560,"yak":2561,"rar":2562,"à´Ĩàµ¼":2563,"net":2564,"ruk":2565,"sebas":2566,"girija":2567,"vathy":2568,"zai":2569,"Ð¼Ð°Ð½":2570,"shaf":2571,"shini":2572,"à´µàµ»":2573,"ec":2574,"leena":2575,"thara":2576,"Ġsanthosh":2577,"Ġpoo":2578,"Ð´Ð°":2579,"jain":2580,"à´ķàµ¼":2581,"dari":2582,"gur":2583,"manuel":2584,"shabeer":2585,"midhun":2586,"Ġà´ħà´¬":2587,"ÙĪØ±ÙĬ":2588,"mba":2589,"Ġraghavan":2590,"ÙģÙĬ":2591,"Ġder":2592,"Ġbhaskaran":2593,"shani":2594,"Ġsc":2595,"hla":2596,"vika":2597,"Ġkari":2598,"ziya":2599,"phon":2600,"ummu":2601,"Ð¼ÑĥÑħÐ°Ð¼":2602,"viji":2603,"sas":2604,"fil":2605,"loo":2606,"Ġmal":2607,"aisha":2608,"ÃŁ":2609,"saranya":2610,"maa":2611,"pai":2612,"lali":2613,"Ġsali":2614,"ddheen":2615,"nim":2616,"riyas":2617,"..":2618,"ÙģØ±":2619,"shiju":2620,"kro":2621,"ckal":2622,"vimala":2623,"jing":2624,"dayan":2625,"jian":2626,"jincy":2627,"vasu":2628,"wai":2629,"aneesh":2630,"Ġpai":2631,"Ġayyappan":2632,"lio":2633,"shen":2634,"Ġvincent":2635,"juma":2636,"abh":2637,"Ð»Ð°Ð²":2638,"ÙĥØ§Ø±":2639,"Ġdomini":2640,"priyan":2641,"pong":2642,"ans":2643,"rio":2644,"Ġsathyan":2645,"ald":2646,"pov":2647,"Ġdevassy":2648,"boon":2649,"subra":2650,"dei":2651,"gara":2652,"Ġani":2653,"saum":2654,"Ġpal":2655,"Ġdinesh":2656,"ttin":2657,"zio":2658,"andy":2659,"sol":2660,"sm":2661,"Ġkk":2662,"nafee":2663,"etti":2664,"Ġmali":2665,"Ġmajeed":2666,"Ġlath":2667,"kil":2668,"yara":2669,"ØªÙĪÙĨ":2670,"jju":2671,"ÑģÑĤ":2672,"kowska":2673,"Ġkala":2674,"Ġsingh":2675,"khay":2676,"cl":2677,"vida":2678,"anoop":2679,"Ġnarayani":2680,"sulaikha":2681,"à´¸à´ľ":2682,"Ġà´µàµ¼à´Ĺ":2683,"kannan":2684,"Ġviswana":2685,"Ġà´ĩ":2686,"Åķ":2687,"shara":2688,"sten":2689,"Ġtreesa":2690,"shvili":2691,"sira":2692,"ÐµÐ¼":2693,"Ġmadhavan":2694,"sajitha":2695,"mÃ©":2696,"Ġveettil":2697,"Ġreji":2698,"Ġmanoj":2699,"ux":2700,"shei":2701,"à´°à´¸":2702,"viÄį":2703,"Ġfernandas":2704,"ÙĬÙĨÙĪ":2705,"dda":2706,"à´¨à´¨":2707,"reji":2708,"eeran":2709,"Ø¨Ø§":2710,"Ã¼k":2711,"oi":2712,"aly":2713,"bos":2714,"chev":2715,"Ġnasrin":2716,"ÄįiÄĩ":2717,"ÑĢÐ°":2718,"Ġsubra":2719,"Ġay":2720,"eb":2721,"zhao":2722,"kowski":2723,"Ġsaha":2724,"rom":2725,"por":2726,"uz":2727,"shafi":2728,"à´®àµ»":2729,"manab":2730,"Ġahamed":2731,"ÙĬÙħ":2732,"chenko":2733,"Ġkunjumon":2734,"Ġoo":2735,"andar":2736,"Ġst":2737,"salman":2738,"bili":2739,"cs":2740,"Ġmoideen":2741,"bika":2742,"Ð°Ð±Ð´ÑĥÐ»":2743,"kkos":2744,"treesa":2745,"manoj":2746,"ÐµÐ»ÑĮ":2747,"Ġhameed":2748,"abin":2749,"osh":2750,"amina":2751,"kani":2752,"Ġdamo":2753,"Ġravindran":2754,"kre":2755,"ille":2756,"esan":2757,"suresh":2758,"kamala":2759,"à´µà´¤":2760,"à´°à´ľ":2761,"Ġpp":2762,"hau":2763,"kat":2764,"kkaran":2765,"ÙĥÙĪÙĨ":2766,"ÑĥÐ¼":2767,"jÃ¸":2768,"Ġummer":2769,"suwan":2770,"mÃ¼l":2771,"bhas":2772,"vrin":2773,"gana":2774,"muneer":2775,"vimal":2776,"Ø³ÙĨ":2777,"Ġkutti":2778,"vinod":2779,"à¦ĩ":2780,"Ġrajesh":2781,"Ġvjayan":2782,"khe":2783,"gro":2784,"fath":2785,"lid":2786,"path":2787,"tsch":2788,"Ġsiva":2789,"kurupp":2790,"bana":2791,"koviÄĩ":2792,"ÅĤa":2793,"shamna":2794,"ammal":2795,"ramla":2796,"oviÄĩ":2797,"gopalan":2798,"Ġlatheef":2799,"nay":2800,"hima":2801,"Ġkunja":2802,"zhang":2803,"ney":2804,"sson":2805,"lim":2806,"hou":2807,"kos":2808,"juli":2809,"à´°à´¹":2810,"sekharan":2811,"lak":2812,"sangeetha":2813,"Ã§i":2814,"ill":2815,"jishnu":2816,"Ġpun":2817,"Ø³ÙĪ":2818,"ewski":2819,"mag":2820,"Ð¼Ð¸ÑĢ":2821,"sayyid":2822,"prath":2823,"phan":2824,"ismail":2825,"edi":2826,"jak":2827,"thika":2828,"surendran":2829,"pee":2830,"fathimathul":2831,"bÃ©":2832,"Ã¡kovÃ¡":2833,"Ġà¦Ĩà¦":2834,"eru":2835,"sister":2836,"fah":2837,"Ġdevasia":2838,"Ġshu":2839,"oui":2840,"Ġsreedharan":2841,"Ġru":2842,"salma":2843,"ssan":2844,"nin":2845,"Ġcheriyan":2846,"Ġmariyam":2847,"tova":2848,"pana":2849,"Ø¶":2850,"jah":2851,"Ġmusthafa":2852,"Ġsaf":2853,"Ġrafi":2854,"Ð³Ð°ÑĢ":2855,"dre":2856,"prem":2857,"dau":2858,"sandeep":2859,"bak":2860,"Ġstan":2861,"shma":2862,"ghe":2863,"koya":2864,"Ø§ÙĦÙĬ":2865,"Ġanas":2866,"vici":2867,"Ġmah":2868,"haseena":2869,"Å¾i":2870,"vir":2871,"jy":2872,"Ø§ÙĨÙĪ":2873,"sub":2874,"ssi":2875,"mc":2876,"isy":2877,"merin":2878,"laksh":2879,"sistar":2880,"Ġpalli":2881,"usman":2882,"Ġpad":2883,"Ã£o":2884,"ovan":2885,"shir":2886,"Ġsul":2887,"reef":2888,"dÃ³ttir":2889,"sli":2890,"nikova":2891,"baiju":2892,"theen":2893,"Ð°Ð½Ð°":2894,"hail":2895,"bah":2896,"muru":2897,"meh":2898,"ert":2899,"Ã§a":2900,"schi":2901,"surya":2902,"rova":2903,"zul":2904,"Ð¼Ð°Ð³":2905,"mak":2906,"bun":2907,"Ġvp":2908,"valappil":2909,"seri":2910,"ech":2911,"oÄŁlu":2912,"hassan":2913,"rav":2914,"alu":2915,"aiswarya":2916,"gai":2917,"Ġumma":2918,"lÃ¼":2919,"jul":2920,"samu":2921,"dine":2922,"lor":2923,"Ġjoshy":2924,"Ġalexander":2925,"Ð±ÐµÐº":2926,"Ìģ":2927,"shakk":2928,"bau":2929,"skij":2930,"Ġbe":2931,"Ġ(":2932,"Ġfran":2933,"Ġprem":2934,"andri":2935,"deepthi":2936,"à´ªàµ»":2937,"hitha":2938,"kau":2939,"Ð¸Ñħ":2940,"Ġjos":2941,"ÙħÙĪÙĨ":2942,"dhana":2943,"dique":2944,"py":2945,"Ġyu":2946,"ÅĤo":2947,"kamal":2948,"gum":2949,"oÇ§lu":2950,"hala":2951,"Ġmer":2952,"dÃ©":2953,"Ø¯ÙĪ":2954,"hamad":2955,"ona":2956,"sus":2957,"renju":2958,"dya":2959,"Ġandrews":2960,"run":2961,"dik":2962,"ashiq":2963,"jali":2964,"palli":2965,"porn":2966,"Ġsivan":2967,"yin":2968,"riac":2969,"Ġprasan":2970,"yev":2971,"Äĳ":2972,"ÙĬÙĨØ§":2973,"Ġcy":2974,"ramya":2975,"bes":2976,"rak":2977,"unnisa":2978,"thun":2979,"ashraf":2980,"ddin":2981,"poulou":2982,"berger":2983,"rÃ©":2984,"subai":2985,"sang":2986,"handas":2987,"syam":2988,"lie":2989,"mariyamma":2990,"bach":2991,"ÙĬØ±ÙĬ":2992,"Ø§ÙĨØ§":2993,"sei":2994,"Ð¼Ð°":2995,"nah":2996,"kkodan":2997,"Ġech":2998,"kandan":2999,"lang":3000,"indira":3001,"Ġkara":3002,"riz":3003,"davan":3004,"Ġscaria":3005,"yaz":3006,"stephen":3007,"ÄĽ":3008,"Ġjamal":3009,"Ġck":3010,"sheeba":3011,"indu":3012,"Ġbose":3013,"Ġnaseer":3014,"olu":3015,"sumi":3016,"sathi":3017,"Ġà´ī":3018,"Ġpuli":3019,"sarath":3020,"rau":3021,"á»":3022,"gaard":3023,"Ġkunji":3024,"czyk":3025,"ivan":3026,"akshaya":3027,"Ġvinod":3028,"Ġnath":3029,"kkil":3030,"sona":3031,"nimisha":3032,"gho":3033,"stu":3034,"rÃ¶":3035,"Ø¨ÙĨ":3036,"hib":3037,"biya":3038,"tru":3039,"veettil":3040,"cam":3041,"escu":3042,"ÙĥÙĪÙģ":3043,"pushpa":3044,"Ġsid":3045,"Ġsulai":3046,"sie":3047,"Ġsel":3048,"moideen":3049,"Ġdeva":3050,"zari":3051,"mman":3052,"nayana":3053,"Ġpush":3054,"simi":3055,"à´¹à´¨":3056,"let":3057,"Ġsaleem":3058,"Ġtomy":3059,"jong":3060,"àµĩà´¾":3061,"pathu":3062,"kkatt":3063,"Ġpee":3064,"jijo":3065,"shahana":3066,"Ġkunjamma":3067,"Ġjon":3068,"ello":3069,"madi":3070,"james":3071,"bat":3072,"Ġzachariah":3073,"shel":3074,"ami":3075,"ÙĥÙĪÙĦ":3076,"bl":3077,"áº":3078,"seer":3079,"ramachandran":3080,"venu":3081,"habu":3082,"à¦¯":3083,"ada":3084,"sudheen":3085,"sna":3086,"bbar":3087,"aswathy":3088,"sow":3089,"idu":3090,"Ġah":3091,"shem":3092,"radhakrishnan":3093,"kli":3094,"kia":3095,"shay":3096,"kiewicz":3097,"maha":3098,"zol":3099,"gne":3100,"thaf":3101,"beth":3102,"pur":3103,"Ã«l":3104,"È©":3105,"illi":3106,"roen":3107,"tab":3108,"parambil":3109,"gopala":3110,"Ġeldh":3111,"nezhad":3112,"Ġbo":3113,"meena":3114,"oglu":3115,"prakash":3116,"Ġvada":3117,"thin":3118,"Ġnamboo":3119,"Ġharis":3120,"kovic":3121,"ÙĳÙĲ":3122,"sse":3123,"Êĩ":3124,"pod":3125,"dathil":3126,"hiya":3127,"Ġshetti":3128,"Ġkv":3129,"rasi":3130,"Ġgee":3131,"gesh":3132,"prema":3133,"elix":3134,"dir":3135,"Ð±Ð°Ð¹":3136,"rovÃ¡":3137,"day":3138,"cou":3139,"Ġbaiju":3140,"ÙĨØº":3141,"Ġrao":3142,"sameer":3143,"ande":3144,"baby":3145,"bhayi":3146,"bash":3147,"ow":3148,"thre":3149,"menon":3150,"hong":3151,"scha":3152,"anvar":3153,"dara":3154,"ilash":3155,"rajeev":3156,"ant":3157,"vipin":3158,"guru":3159,"amala":3160,"ÑĤÐ°":3161,"Ġkabeer":3162,"hri":3163,"Ġoommen":3164,"à´°à´µ":3165,"tom":3166,"Ġnizar":3167,"yathangal":3168,"eeb":3169,"Ø±ÙĪ":3170,"wol":3171,"beena":3172,"ess":3173,"shak":3174,"janam":3175,"kaja":3176,"à´°à´ķ":3177,"gang":3178,"Ġdiva":3179,"sc":3180,"foor":3181,"lijo":3182,"rd":3183,"àµģ.":3184,"teiro":3185,"Ġlukose":3186,"leh":3187,"aran":3188,"maji":3189,"Ġdominic":3190,"kay":3191,"dag":3192,"sahla":3193,"Ġaravin":3194,"ÑĮÑı":3195,"Ġponna":3196,"azha":3197,"skaia":3198,"zhayil":3199,"Ġjor":3200,"mmath":3201,"hiro":3202,"kkuru":3203,"àµĢà´Ĥ":3204,"athulya":3205,"ÙĬÙģ":3206,"à´Łàµ»":3207,"eviÄĩ":3208,"uri":3209,"dad":3210,"laila":3211,"korn":3212,"Ġaji":3213,"Ġlaksh":3214,"issac":3215,"cen":3216,"saritha":3217,"mÃ¼ller":3218,"Ġkurupp":3219,"Ġmuraleedharan":3220,"Ġputhiya":3221,"Ð³Ð°Ð»":3222,"joji":3223,"jumon":3224,"ajin":3225,"mov":3226,"Ġsudh":3227,"zzi":3228,"Ġsadanandan":3229,"mahesh":3230,"suk":3231,"à´ķà´¬":3232,"à´²à´¤":3233,"Ġtre":3234,"cke":3235,"ravan":3236,"haya":3237,"ØªÙĪ":3238,"omana":3239,"à´²àµ»":3240,"feek":3241,"à´±à´£":3242,"ono":3243,"ÙħØ§":3244,"Ġasokan":3245,"Ð¾Ð¼":3246,"dos":3247,"chithra":3248,"Ð¸Ð²":3249,"dov":3250,"shameer":3251,"Ġvalappil":3252,"Ġhar":3253,"vijesh":3254,"prasanna":3255,"cheriya":3256,"thiru":3257,"viÄįi":3258,"Ø¬Ø±":3259,"vari":3260,"chinchu":3261,"Ġvelayudhan":3262,"à´¹àµ»":3263,"Ġmichael":3264,"met":3265,"iu":3266,"Ġvil":3267,"ÑįÐ½":3268,"zana":3269,"stra":3270,"Ã¡l":3271,"ys":3272,"shira":3273,"ingal":3274,"bÃ¼":3275,"ule":3276,"sameera":3277,"Ġdee":3278,"skas":3279,"mmed":3280,"gad":3281,"neera":3282,"uka":3283,"gab":3284,"ÙĥÙĨ":3285,"à§ĭ":3286,"Ġsaju":3287,"skyi":3288,"devika":3289,"Ġjob":3290,"rifa":3291,"Ã¶m":3292,"fen":3293,"Ġpriya":3294,"fari":3295,"tia":3296,"wel":3297,"vala":3298,"mole":3299,"die":3300,"Ġyohannan":3301,"pla":3302,"vek":3303,"eda":3304,"archana":3305,"bei":3306,"zhy":3307,"Ġkareem":3308,"rutha":3309,"Ġebrahim":3310,"ullas":3311,"sio":3312,"Ġkai":3313,"bebi":3314,"rini":3315,"Ġbas":3316,"Ġshar":3317,"cken":3318,"Ġvel":3319,"arul":3320,"yuk":3321,"kla":3322,"Ð»Ñİ":3323,"jari":3324,"ÑĮÑıÐ½":3325,"aleyamma":3326,"Ġkannan":3327,"nat":3328,"cht":3329,"yed":3330,"Ġsankar":3331,"yun":3332,"sanjay":3333,"mathyu":3334,"jum":3335,"Ġgra":3336,"mÃ¼":3337,"chun":3338,"juna":3339,"alma":3340,"ajitha":3341,"Ð¸Ð´Ð°":3342,"dro":3343,"isa":3344,"Ġbinu":3345,"ian":3346,"luk":3347,"ÙĥÙĬÙĨ":3348,"Ġyou":3349,"naseer":3350,"tya":3351,"rias":3352,"charoen":3353,"Ġpin":3354,"niya":3355,"Ġjin":3356,"Ø£":3357,"ender":3358,"vet":3359,"diyan":3360,"Ġammal":3361,"rahman":3362,"Ġtha":3363,"danan":3364,"Ġmukundan":3365,"shahina":3366,"mesan":3367,"purayil":3368,"Ġrachel":3369,"sko":3370,"gue":3371,"chandrika":3372,"Ġmk":3373,"baÅŁ":3374,"à´¨à´¸":3375,"vee":3376,"kad":3377,"xu":3378,"Ġvarkey":3379,"jie":3380,"Ġganesh":3381,"aar":3382,"Ġyas":3383,"santhosh":3384,"Ġstephen":3385,"faisal":3386,"navya":3387,"Ġsulaiman":3388,"kkath":3389,"aboobacker":3390,"Ġea":3391,"harsha":3392,"young":3393,"jaga":3394,"Ġgopalan":3395,"gopi":3396,"Ġvenugopal":3397,"jou":3398,"Ġcp":3399,"shya":3400,"Ġpradeep":3401,"Ã¡s":3402,"à´®à´£":3403,"dah":3404,"Ġsher":3405,"Ð¶Ð°Ð½":3406,"Ġprabhu":3407,"rathi":3408,"Ġkamal":3409,"Ġhaneefa":3410,"soosa":3411,"ÙĩØ§Ø±":3412,"ÐºÐ°":3413,"kÃ¼Ã§":3414,"Ġaboobacker":3415,"kuri":3416,"ÙĪØ§":3417,"àµ¼à´·":3418,"tten":3419,"sankar":3420,"shilpa":3421,"kes":3422,"ÑĥÐ´":3423,"à´ħà´ŀ":3424,"sethu":3425,"Ġkizha":3426,"à´¯à´®":3427,"ajay":3428,"lon":3429,"ij":3430,"vr":3431,"à´¸à´¬":3432,"Ð²Ð°Ð»":3433,"Ġnampyar":3434,"dona":3435,"Ġanand":3436,"philomina":3437,"beeb":3438,"sery":3439,"ie":3440,"âĢĮâĢĮ":3441,"bis":3442,"ull":3443,"chy":3444,"faseela":3445,"yammal":3446,"à´±à´«":3447,"Ø¨Ø§ÙĦ":3448,"nikh":3449,"unnikrishnan":3450,"Ġmp":3451,"Ġbalachandran":3452,"red":3453,"Ġshareef":3454,"chia":3455,"reendran":3456,"banu":3457,"wyn":3458,"Ġskaria":3459,"bov":3460,"jala":3461,"malavika":3462,"Ġjanardhanan":3463,"moh":3464,"dic":3465,"shifana":3466,"rosh":3467,"Ġgopala":3468,"Ġshibu":3469,"saumya":3470,"ratana":3471,"ÙĬØ³Øª":3472,"deh":3473,"sanju":3474,"amar":3475,"inu":3476,"nidhin":3477,"haib":3478,"Ã¶n":3479,"sada":3480,"ttas":3481,"Ø¯Ø§":3482,"Ġmath":3483,"elle":3484,"soja":3485,"thaman":3486,"reeja":3487,"manabhan":3488,"Ø¨ÙĪÙĦ":3489,"à´µà´°":3490,"tara":3491,"abraham":3492,"fon":3493,"balan":3494,"Ð´Ð°Ð½":3495,"ckar":3496,"Ġpanikkar":3497,"ghese":3498,"zabath":3499,"à´ĺ":3500,"Ġgovindan":3501,"Ð·Ð°":3502,"reza":3503,"Ġparveen":3504,"vander":3505,"Ġkiran":3506,"bila":3507,"tos":3508,"pak":3509,"sarojini":3510,"gand":3511,"are":3512,"rey":3513,"sijo":3514,"xia":3515,"Ġsreeni":3516,"kandy":3517,"mos":3518,"Ġdhan":3519,"phy":3520,"zim":3521,"salam":3522,"tang":3523,"rasiya":3524,"Ã±ez":3525,"Ġsah":3526,"shahanas":3527,"sp":3528,"yesu":3529,"ers":3530,"Ø¨Ø§ÙĨ":3531,"moy":3532,"stro":3533,"jessy":3534,"via":3535,"shev":3536,"ora":3537,"thri":3538,"Ð¸Ð¾":3539,"sih":3540,"dze":3541,"ÑĦÐ°ÑĢ":3542,"jameela":3543,"jekkab":3544,"Ø¯ÙĬÙĨ":3545,"ewska":3546,"Ġmuru":3547,"Ì§":3548,"vithran":3549,"Ð°Ð¶":3550,"pna":3551,"said":3552,"eswari":3553,"Ġmanoharan":3554,"Ġnadar":3555,"manian":3556,"Ġdileep":3557,"ira":3558,"nez":3559,"flo":3560,"kkiya":3561,"suhail":3562,"Ġvaliya":3563,"lyn":3564,"Ã¤r":3565,"preethi":3566,"robin":3567,"Ð³ÑĥÐ»ÑĮ":3568,"rajamma":3569,"ÐºÐ¾":3570,"covÃ¡":3571,"Å¡ovÃ¡":3572,"zza":3573,"anjaly":3574,"art":3575,"wati":3576,"dom":3577,"ÑģÐ°":3578,"bia":3579,"ØºÙĬ":3580,"Ġdamodaran":3581,"à´ħà´¶":3582,"ciu":3583,"meg":3584,"ÑįÐ»ÑĮ":3585,"Ġbal":3586,"priyanka":3587,"Ġà¦¹":3588,"ÙħÙĨ":3589,"fra":3590,"pura":3591,"ÙĩÙĬ":3592,"kkir":3593,"qbal":3594,"najiya":3595,"Ġà¦®":3596,"zhin":3597,"yd":3598,"bet":3599,"jara":3600,"Ġjaison":3601,"sav":3602,"ile":3603,"Ø¨ÙĪÙĨ":3604,"Ġsajeev":3605,"umma":3606,"bh":3607,"ÙĬØªÙĬ":3608,"yad":3609,"ÑĪÐ°":3610,"ych":3611,"Ġrin":3612,"Ð°Ð½ÑĤ":3613,"sudheesh":3614,"deesh":3615,"ves":3616,"sem":3617,"rajendran":3618,"pez":3619,"zhuo":3620,"shibu":3621,"Ġti":3622,"wis":3623,"khitha":3624,"Ġà´ļà´¨":3625,"pÃ©":3626,"kkurupp":3627,"oob":3628,"kovi":3629,"kura":3630,"Ġramesh":3631,"inezhad":3632,"sarada":3633,"bitha":3634,"francis":3635,"roy":3636,"jeri":3637,"bani":3638,"ÐºÐ°ÑĢ":3639,"anupa":3640,"panikkar":3641,"bibin":3642,"Ð¸Ð¿":3643,"nirmala":3644,"vor":3645,"mÃ¡":3646,"sakh":3647,"cun":3648,"eeda":3649,"hath":3650,"Ġshetty":3651,"eal":3652,"vali":3653,"mohana":3654,"Ġaj":3655,"àµ¼à´®":3656,"kada":3657,"tÃ©":3658,"bÃ¶":3659,"Ġsas":3660,"then":3661,"ÑĢÐ°Ð¼":3662,"zah":3663,"est":3664,"kum":3665,"jaseela":3666,"Ġeda":3667,"preetha":3668,"Ġkuryan":3669,"isha":3670,"esa":3671,"ved":3672,"ttam":3673,"Ġkm":3674,"Ġmartin":3675,"ase":3676,"thali":3677,"badi":3678,"Ø§Ø¡":3679,"nejad":3680,"Ø§ØªÙĬ":3681,"thres":3682,"ÙĦÙĬÙĨ":3683,"lini":3684,"naveen":3685,"ungal":3686,"varsha":3687,"ori":3688,"kavitha":3689,"prakas":3690,"à´¸à´²":3691,"shamla":3692,"Ġtp":3693,"jiang":3694,"Ġà´ħà´¨":3695,"siju":3696,"nus":3697,"Ð¼Ð¸Ð½Ð½":3698,"ÐµÐ³":3699,"sdÃ³ttir":3700,"nav":3701,"bad":3702,"kkala":3703,"Ġnaik":3704,"jiya":3705,"aux":3706,"hun":3707,"à´¸à´¤":3708,"sla":3709,"Ġjaleel":3710,"ming":3711,"nazar":3712,"Ø±Ø§":3713,"kit":3714,"aneesha":3715,"jima":3716,"Ġchar":3717,"mart":3718,"Ġà¦":3719,"sajeev":3720,"oothiri":3721,"Ġà´±à´¹":3722,"murali":3723,"mit":3724,"zou":3725,"Ġdivakaran":3726,"alo":3727,"soniya":3728,"Ð»Ñı":3729,"pul":3730,"Ġwil":3731,"dem":3732,"babi":3733,"vada":3734,"uddheen":3735,"Ġjorj":3736,"Ã¾":3737,"Ġjosaf":3738,"soorya":3739,"all":3740,"madhavan":3741,"subair":3742,"bran":3743,"sobhana":3744,"Ġmadhavi":3745,"rosamma":3746,"hami":3747,"Ġshirin":3748,"Ġjes":3749,"sasidharan":3750,"bari":3751,"asari":3752,"renjini":3753,"nabee":3754,"hÃ¶":3755,"ret":3756,"Ġlaw":3757,"martin":3758,"anne":3759,"dig":3760,"faz":3761,"Ġpaulose":3762,"Ġfaisal":3763,"à´®àµ½":3764,"amrutha":3765,"Ġajith":3766,"kaya":3767,"ppi":3768,"izal":3769,"ananda":3770,"Ġnazeer":3771,"dali":3772,"Ġcyriac":3773,"Ġthangal":3774,"seetha":3775,"Ġasok":3776,"Ð²Ð°ÑĢ":3777,"Ġfarsana":3778,"pl":3779,"Ġjer":3780,"mian":3781,"Ġshai":3782,"amri":3783,"josh":3784,"Ġfilipp":3785,"ebin":3786,"tavida":3787,"arayanan":3788,"ac":3789,"jacob":3790,"Ġninan":3791,"rus":3792,"Ġkov":3793,"Ġtk":3794,"rafi":3795,"fara":3796,"Ġpraveen":3797,"sovÃ¡":3798,"karthi":3799,"dian":3800,"Ġasharaf":3801,"marajan":3802,"Ġnajeeb":3803,"pam":3804,"elson":3805,"ggi":3806,"elizabeth":3807,"à´¸àµ½":3808,"ÄįkovÃ¡":3809,"Ð¾Ñģ":3810,"aswin":3811,"Ġjasmin":3812,"Ð¸ÑĢÐ°":3813,"tl":3814,"indra":3815,"xon":3816,"deepak":3817,"dhil":3818,"karuna":3819,"Ð°Ð½Ð´ÑĢ":3820,"reni":3821,"riyan":3822,"à´¹à´°":3823,"Ġkochu":3824,"mie":3825,"Ġharidas":3826,"rence":3827,"à´¦àµ¼":3828,"mariyam":3829,"vri":3830,"Ġmathai":3831,"à´ķà´£":3832,"sheeda":3833,"Ġzacharias":3834,"ite":3835,"santha":3836,"à´ħà´°":3837,"rod":3838,"naseema":3839,"Ġgafoor":3840,"laman":3841,"Ġpana":3842,"geo":3843,"sajini":3844,"Ð±ÐµÑĢ":3845,"anisha":3846,"Ġjai":3847,"guna":3848,"ppachan":3849,"swam":3850,"ÑĥÑĤÐ´Ð¸Ð½":3851,"sit":3852,"wala":3853,"nasar":3854,"ilan":3855,"ther":3856,"rald":3857,"aso":3858,"tzer":3859,"Ġchrist":3860,"ens":3861,"Ġjain":3862,"chella":3863,"anandhu":3864,"ÙĪÙĩ":3865,"ÑĦÑĢ":3866,"mac":3867,"roth":3868,"bekova":3869,"Ġkhader":3870,"glo":3871,"Ġtresa":3872,"Ġayi":3873,"bÇİ":3874,"Ġshaju":3875,"Ġreghu":3876,"Ġshy":3877,"theesh":3878,"Ġshajahan":3879,"Ġmuh":3880,"Ġap":3881,"ÙĬØ§":3882,"Ð°Ð´Ð¶":3883,"Ġjayaraj":3884,"balakrishnan":3885,"yah":3886,"miro":3887,"à´īà´®":3888,"alin":3889,"Ġsuhail":3890,"kkat":3891,"wami":3892,"shek":3893,"deni":3894,"sajin":3895,"Å¡ek":3896,"mus":3897,"kkun":3898,"chet":3899,"liu":3900,"ÇĴ":3901,"Ġdu":3902,"Ġkaru":3903,"Ġraghu":3904,"ÐµÐºÑģ":3905,"sÃ©":3906,"Ġkumaran":3907,"sajina":3908,"jur":3909,"nig":3910,"gru":3911,"sharon":3912,"shia":3913,"Ġgopinath":3914,"ogun":3915,"shabana":3916,"silpa":3917,"hoff":3918,"Ġmuneer":3919,"jamal":3920,"Ġsain":3921,"abuba":3922,"sÃ¸":3923,"lev":3924,"Ð³ÐµÐ½":3925,"nÃ¡":3926,"kovsky":3927,"Ġakbar":3928,"Ġà´ħà´²":3929,"shaila":3930,"ajesh":3931,"sing":3932,"Ġputhu":3933,"Ġsatheesh":3934,"up":3935,"jorjj":3936,"manjusha":3937,"kkim":3938,"nasi":3939,"Ø¯Ø§ÙĨ":3940,"ziz":3941,"govindan":3942,"Ð·ÑıÐ½":3943,"Ġpv":3944,"eke":3945,"ett":3946,"Ġmohandas":3947,"raghu":3948,"chamma":3949,"Ġnavas":3950,"Ġhe":3951,"Ġchalil":3952,"raa":3953,"Ġemmanuel":3954,"subaida":3955,"Ġshahul":3956,"nit":3957,"Ġnan":3958,"Ø¨ÙĬÙĨ":3959,"Ġprabhakaran":3960,"yadan":3961,"sudhar":3962,"nÃ©":3963,"Ġjabbar":3964,"vrinda":3965,"yong":3966,"Äįek":3967,"Ġyoo":3968,"Ã³r":3969,"gau":3970,"Ð¼Ð¸Ð»":3971,"pradeep":3972,"à¦Ĩà¦¤":3973,"dab":3974,"alavi":3975,"Ġissac":3976,"eeba":3977,"zani":3978,"hasan":3979,"roni":3980,"anto":3981,"àµ¼à´¤":3982,"Ġfaroo":3983,"ï¿":3984,"sunitha":3985,"fathimathu":3986,"manas":3987,"ges":3988,"ï¿½":3989,"âĢĲ":3990,"ob":3991,"anga":3992,"Ġdisoosa":3993,"kunha":3994,"shahi":3995,"à´±àµ¼":3996,"maj":3997,"Ø§Ø¦":3998,"Ġusman":3999,"andro":4000,"bÃ¸":4001,"ÙĪÙĦÙĬ":4002,"Ġber":4003,"zek":4004,"diri":4005,"bali":4006,"sivan":4007,"shra":4008,"inejad":4009,"shaiju":4010,"pathi":4011,"à´ħà´Ń":4012,"dim":4013,"ØªÙĪØ±":4014,"nna":4015,"safa":4016,"ÑĦÐ°ÑĤ":4017,"ÇĲ":4018,"undar":4019,"à´¶àµ»":4020,"io":4021,"sabu":4022,"yanath":4023,"Ø³ÙĬÙĨ":4024,"Ø¯ÙĪÙĨ":4025,"Ġnoor":4026,"Ġmad":4027,"à´ļàµ»":4028,"Ġsekhar":4029,"ancy":4030,"ramlath":4031,"Ġpm":4032,"Ġsouza":4033,"gov":4034,"darsan":4035,"Ġdhar":4036,"savi":4037,"niki":4038,"Ġkader":4039,"ily":4040,"Ġchem":4041,"ghan":4042,"Ġjero":4043,"muhsina":4044,"ÌĪ":4045,"althaf":4046,"ØºÙĪ":4047,"achu":4048,"reefa":4049,"hamani":4050,"yon":4051,"Ð°Ð»Ð¸Ð¼":4052,"ppen":4053,"jath":4054,"jol":4055,"raseena":4056,"naseera":4057,"rabiya":4058,"Ð¼ÑĥÑĢ":4059,"cheal":4060,"gga":4061,"hov":4062,"soman":4063,"Å¡iÄĩ":4064,"wam":4065,"dana":4066,"Ġsreekumar":4067,"kom":4068,"Ġjam":4069,"angara":4070,"Ã¢n":4071,"gangadharan":4072,"Ġlakshmanan":4073,"sev":4074,"phe":4075,"Ġhassan":4076,"ÈĻ":4077,"baran":4078,"ambika":4079,"bhag":4080,"praveena":4081,"kula":4082,"hendri":4083,"ulli":4084,"scho":4085,"Ġashi":4086,"peter":4087,"gian":4088,"ÐµÑĤÐ´Ð¸Ð½":4089,"jish":4090,"sanu":4091,"à´¨à´¤":4092,"iah":4093,"shahida":4094,"bartt":4095,"thahira":4096,"ÙĥØ§ÙĨ":4097,"sabitha":4098,"Ġkarim":4099,"Ġrajeev":4100,"Ġrashid":4101,"sreedevi":4102,"à´ķà´°àµ»":4103,"Ġlin":4104,"à´°à´Ń":4105,"yis":4106,"Ġvijayakumar":4107,"gari":4108,"dela":4109,"thum":4110,"gir":4111,"hua":4112,"Ġsaseendran":4113,"à´§à´°àµ»":4114,"kovich":4115,"kkuttan":4116,"jibin":4117,"cky":4118,"abdel":4119,"kab":4120,"aravin":4121,"thyayani":4122,"ap":4123,"mee":4124,"lem":4125,"tsa":4126,"feeque":4127,"neenu":4128,"chali":4129,"Ġcheru":4130,"ummer":4131,"moor":4132,"inga":4133,"ade":4134,"mezh":4135,"shor":4136,"Ġiqbal":4137,"thulasi":4138,"indhu":4139,"sudhakaran":4140,"ÑĤÐ°Ð½":4141,"à´ħà´¸":4142,"nima":4143,"rek":4144,"Ø²ÙĪ":4145,"à¦ª":4146,"Ð¾Ð´":4147,"padma":4148,"nais":4149,"dio":4150,"Ã©s":4151,"Ð±Ð°ÑĢ":4152,"minu":4153,"Ã±a":4154,"Ġpavithran":4155,"sathya":4156,"mans":4157,"anie":4158,"sena":4159,"Ð»ÑĮ":4160,"Ġfi":4161,"eia":4162,"taÅŁ":4163,"dhul":4164,"thala":4165,"à´ľà´¸":4166,"parvathi":4167,"sony":4168,"Ġmonteiro":4169,"Ġstanley":4170,"à´Ĳ":4171,"ÙħÙĪØ±":4172,"malar":4173,"varggees":4174,"Ġà´Ĩà´¨":4175,"chang":4176,"ÐµÐ½ÑĤ":4177,"shitha":4178,"ÙĦØ§ÙĨ":4179,"chinju":4180,"jaz":4181,"non":4182,"yat":4183,"kj":4184,"à´Ĩà´·":4185,"Ġsuhara":4186,"Ġvaru":4187,"liju":4188,"ÙĦØ§":4189,"vez":4190,"vinu":4191,"fy":4192,"Ø³ØªØ±":4193,"dini":4194,"feli":4195,"vam":4196,"Ġsubair":4197,"khov":4198,"rui":4199,"bey":4200,"endor":4201,"Ġjyo":4202,"kris":4203,"Ġraman":4204,"mri":4205,"à´°à´ŀ":4206,"ÙĥØ³":4207,"asif":4208,"Ġvasudevan":4209,"muba":4210,"ØªØ³":4211,"Ġà´Ń":4212,"ÙĬØ±ÙĪ":4213,"muhammath":4214,"Å¡a":4215,"rana":4216,"burg":4217,"à´±à´¸":4218,"tch":4219,"Ġismail":4220,"ooja":4221,"shyla":4222,"sachin":4223,"arsha":4224,"yesh":4225,"etz":4226,"dak":4227,"Ġbhaskar":4228,"sreelakshmi":4229,"geer":4230,"cic":4231,"Ġfelix":4232,"Ġperera":4233,"sre":4234,"à¦¼":4235,"Ġjana":4236,"Ġashok":4237,"varun":4238,"Ġed":4239,"Ø¯ÙĪØ±":4240,"Ġmanik":4241,"santhi":4242,"ynski":4243,"rol":4244,"shina":4245,"ets":4246,"ville":4247,"tay":4248,"maru":4249,"Ø§Ø¯ÙĬ":4250,"Ġchola":4251,"saramma":4252,"inen":4253,"soma":4254,"Ġkaruna":4255,"sik":4256,"Ð°Ðµ":4257,"yims":4258,"arumu":4259,"Ġsundar":4260,"Ġsheri":4261,"ary":4262,"brin":4263,"klin":4264,"leelamma":4265,"dina":4266,"baz":4267,"Ġnu":4268,"rand":4269,"à´µà´¨":4270,"Ãµ":4271,"deepu":4272,"bhan":4273,"shyam":4274,"veer":4275,"Ġkhadar":4276,"tovÃ¡":4277,"sura":4278,"pravitha":4279,"Ġchetti":4280,"abo":4281,"madhavi":4282,"Ø°":4283,"à´ħà´ĸ":4284,"lisa":4285,"Ġkani":4286,"kurup":4287,"arath":4288,"Ġkoo":4289,"neu":4290,"Ġnamboothiri":4291,"bekov":4292,"mahin":4293,"dl":4294,"laz":4295,"Ġnampoothiri":4296,"Ġà´ħà´®":4297,"sek":4298,"Ø¨Ø§Ø³":4299,"àµ¼à´£":4300,"Ġhamza":4301,"sibi":4302,"rum":4303,"lat":4304,"ÑĤÐ¸Ð¼":4305,"susan":4306,"enna":4307,"sty":4308,"Ġanto":4309,"elo":4310,"Ġprakas":4311,"Ġgopalakrishnan":4312,"Ġass":4313,"roshan":4314,"à´ħà´²":4315,"bli":4316,"saif":4317,"Ã¥rd":4318,"rie":4319,"eder":4320,"moosa":4321,"Ġvarma":4322,"won":4323,"ahamed":4324,"aleena":4325,"sila":4326,"subin":4327,"heiro":4328,"salini":4329,"vargees":4330,"muraleedharan":4331,"ÑıÑĢ":4332,"swar":4333,"Ð³Ð°":4334,"satheesh":4335,"sreelatha":4336,"Ġafsal":4337,"band":4338,"lek":4339,"ilva":4340,"ÙĬØ§ÙĨ":4341,"nitha":4342,"lova":4343,"pova":4344,"leu":4345,"sef":4346,"Ġkotta":4347,"ÙħÙĪ":4348,"Ġpurayil":4349,"fousiya":4350,"kkandy":4351,"ÙĬÙĦØ§":4352,"Ġbeegam":4353,"Ð½Ð°Ð·":4354,"song":4355,"kanya":4356,"Ã¨res":4357,"ÙĨØ±":4358,"manjju":4359,"pranav":4360,"deli":4361,"Ġriyas":4362,"chil":4363,"rev":4364,"Ø¬Ø§ÙĨ":4365,"midhu":4366,"kola":4367,"kken":4368,"ÑģÐ°ÑĢ":4369,"bles":4370,"oora":4371,"anusha":4372,"ÙĪÙģØ§":4373,"ÑĥÐº":4374,"tol":4375,"Ġsoo":4376,"niyil":4377,"ÙĦÙĪ":4378,"Ġdasan":4379,"Ð»Ð°Ð¼":4380,"ding":4381,"hadi":4382,"shui":4383,"eck":4384,"ttappan":4385,"Ġmalayil":4386,"nizar":4387,"jasmin":4388,"vidhya":4389,"pari":4390,"ÐµÑĦ":4391,"rul":4392,"zhev":4393,"rusho":4394,"kira":4395,"nikhila":4396,"ug":4397,"sami":4398,"poor":4399,"was":4400,"zÃ¡":4401,"shiya":4402,"ffi":4403,"Ġkalari":4404,"gali":4405,"Ð¼Ð°ÑĤ":4406,"jeer":4407,"strÃ¶m":4408,"mmala":4409,"ananthu":4410,"mahi":4411,"Ġkurien":4412,"Ġrazak":4413,"Ġmana":4414,"cla":4415,"ovic":4416,"lian":4417,"sankaran":4418,"bour":4419,"Ġkhalid":4420,"lekshmi":4421,"reh":4422,"elisa":4423,"oh":4424,"Ø§ØªØ´":4425,"iya":4426,"anwar":4427,"à´´":4428,"gunan":4429,"yandi":4430,"Ġsajan":4431,"varna":4432,"jamin":4433,"leel":4434,"brun":4435,"yoob":4436,"Ġmir":4437,"nafeesath":4438,"kang":4439,"rem":4440,"irin":4441,"ÑıÑĤ":4442,"rn":4443,"ÙĥÙĬØ±":4444,"khara":4445,"naya":4446,"pei":4447,"vitz":4448,"kkoth":4449,"shahul":4450,"Ġsahadevan":4451,"bj":4452,"august":4453,"Ġmathyu":4454,"Ġgu":4455,"ffer":4456,"dja":4457,"ost":4458,"veli":4459,"niran":4460,"wie":4461,"neena":4462,"sulekha":4463,"stam":4464,"muhammadali":4465,"sreelekha":4466,"cheva":4467,"dell":4468,"pram":4469,"meyer":4470,"taz":4471,"inia":4472,"hamza":4473,"mena":4474,"Ġaslam":4475,"sut":4476,"laya":4477,"bie":4478,"ÙģÙĪØ±":4479,"ÙĨØ§":4480,"Ð°Ð¹Ð½":4481,"suseela":4482,"arif":4483,"abdus":4484,"narayana":4485,"haz":4486,"Ġsudheer":4487,"Ġhi":4488,"inas":4489,"hÃ¤":4490,"Ġachari":4491,"Ġlazar":4492,"ilda":4493,"sudeen":4494,"ÙħØ±":4495,"adar":4496,"sat":4497,"haus":4498,"rahim":4499,"à´¨àµ»":4500,"àµ½à´µ":4501,"sisttar":4502,"bena":4503,"hanath":4504,"ach":4505,"Ùī":4506,"à´ķà´°":4507,"Ġnir":4508,"Ġgomez":4509,"rim":4510,"lima":4511,"ummar":4512,"swathi":4513,"à´±à´¹":4514,"à´¯à´¤":4515,"aju":4516,"Ġdar":4517,"hoo":4518,"ajith":4519,"kong":4520,"à´¨à´®":4521,"ult":4522,"sava":4523,"Ġkarunakaran":4524,"zhou":4525,"lina":4526,"nag":4527,"ØªØ§":4528,"mova":4529,"nummal":4530,"Ã§o":4531,"vivek":4532,"ÙĥØ§Ø³":4533,"ckson":4534,"zhuang":4535,"krist":4536,"swe":4537,"Ġpt":4538,"reeshma":4539,"dru":4540,"à´¦àµ»":4541,"yÃ¼":4542,"ÙĩØ§ÙĨ":4543,"shama":4544,"guez":4545,"sum":4546,"ÙĪØ§ÙĨ":4547,"govin":4548,"fla":4549,"lika":4550,"nadee":4551,"athil":4552,"stani":4553,"Ġpath":4554,"gat":4555,"Ġkasim":4556,"Ġmanuel":4557,"ingam":4558,"Ġgrace":4559,"à´¸à´®":4560,"jisna":4561,"jid":4562,"à´¯à´ķ":4563,"daniel":4564,"à¦Ĺ":4565,"pis":4566,"manikandan":4567,"Ã¸y":4568,"á»³":4569,"à¦Ĩà¦¨":4570,"shiro":4571,"valsamma":4572,"ØºÙĪØ±":4573,"ft":4574,"lÄ±":4575,"ÉĻ":4576,"shari":4577,"Ġshihab":4578,"kry":4579,"asharaf":4580,"mathu":4581,"bhanu":4582,"Ġess":4583,"Ġee":4584,"sheng":4585,"soji":4586,"à´·à´®":4587,"kei":4588,"Ġjim":4589,"mr":4590,"Ġbhatt":4591,"chem":4592,"Ġmel":4593,"Ð³ÐµÑĢ":4594,"zzo":4595,"noorjahan":4596,"ilas":4597,"bayeva":4598,"ammini":4599,"hÃ©":4600,"beeba":4601,"vineetha":4602,"tso":4603,"wini":4604,"nandas":4605,"gis":4606,"ÙģÙĬÙĦ":4607,"gia":4608,"yoon":4609,"anupama":4610,"Ġno":4611,"Ġkarthi":4612,"anilkumar":4613,"wattana":4614,"Ġshen":4615,"kav":4616,"shibin":4617,"kanth":4618,"namp":4619,"ute":4620,"kabeer":4621,"Ġir":4622,"joyi":4623,"villa":4624,"subi":4625,"hanna":4626,"prabhu":4627,"sreeni":4628,"Ð·Ð¸Ð½":4629,"Ð¸Ð¼Ð°":4630,"tina":4631,"lavan":4632,"mau":4633,"Ìĩ":4634,"jayakumar":4635,"ÙĩØ§":4636,"thong":4637,"cheng":4638,"zie":4639,"shakkeela":4640,"cÃŃ":4641,"siamma":4642,"fau":4643,"sainar":4644,"Ø±Ø§ÙĨ":4645,"vaishna":4646,"inski":4647,"joon":4648,"chez":4649,"vish":4650,"khin":4651,"kraman":4652,"safiya":4653,"parvathy":4654,"Ġà´ı":4655,"mili":4656,"jomon":4657,"nova":4658,"Ġabbas":4659,"kolo":4660,"eendra":4661,"mark":4662,"geeth":4663,"hanan":4664,"schu":4665,"sheik":4666,"lÃ¡":4667,"eeja":4668,"lalitha":4669,"Ġnelson":4670,"rahmath":4671,"ÑİÐ½":4672,"muk":4673,"fang":4674,"ranjitha":4675,"Ġajayan":4676,"puthiya":4677,"Ġraji":4678,"Ġjoshi":4679,"ÑĥÑħ":4680,"nivya":4681,"smt":4682,"chira":4683,"sne":4684,"ratheesh":4685,"à´ķàµ½":4686,"arn":4687,"old":4688,"farsana":4689,"Ġfiro":4690,"thangal":4691,"sosamma":4692,"basil":4693,"ouse":4694,"anakha":4695,"zhaya":4696,"jobin":4697,"meier":4698,"feldt":4699,"kkeer":4700,"Ø²Ø§":4701,"lara":4702,"Ø§ÙĪÙĬ":4703,"lilli":4704,"tah":4705,"tza":4706,"purath":4707,"ÙĦØ±":4708,"ÙĥÙĪØ³":4709,"klu":4710,"Ġjanaki":4711,"juan":4712,"chalil":4713,"ig":4714,"simon":4715,"Ġvas":4716,"Ð¸ÑĪ":4717,"ÙħÙĬÙĨ":4718,"feekk":4719,"sebastian":4720,"sreen":4721,"Ġroshan":4722,"Ø¨Ø±ÙĬ":4723,"Ġhusain":4724,"Ġvari":4725,"Ġmanohar":4726,"hao":4727,"damo":4728,"hamood":4729,"Ġvina":4730,"naja":4731,"ammu":4732,"Ġameer":4733,"viya":4734,"saju":4735,"ÙĨÙĪØ±":4736,"karu":4737,"ilal":4738,"nika":4739,"raya":4740,"mey":4741,"sabira":4742,"op":4743,"cÃ©":4744,"ish":4745,"ÙĨØ¯":4746,"tÃ¼r":4747,"anton":4748,"mati":4749,"pand":4750,"koz":4751,"ise":4752,"beck":4753,"czak":4754,"Ġer":4755,"enÄĹ":4756,"papa":4757,"vera":4758,"nara":4759,"zhar":4760,"Ġhareendran":4761,"Ġeldhose":4762,"unnee":4763,"Ġrafeeq":4764,"Ġmanikandan":4765,"ovska":4766,"ns":4767,"bijoy":4768,"doro":4769,"Å¡e":4770,"sujatha":4771,"zas":4772,"nikhitha":4773,"ning":4774,"Ġkuriya":4775,"tama":4776,"rug":4777,"ttara":4778,"ÑħÐ°ÑĤ":4779,"Ġchella":4780,"veera":4781,"bhaskaran":4782,"fur":4783,"ichi":4784,"kurian":4785,"pier":4786,"Ġmoosa":4787,"à´°à´¶":4788,"Ġsand":4789,"Å¡t":4790,"sathyan":4791,"oja":4792,"cca":4793,"nirmal":4794,"Ð±Ð°":4795,"shree":4796,"Ġlawrence":4797,"fos":4798,"muhamad":4799,"alha":4800,"sudhi":4801,"rajani":4802,"Ġbava":4803,"keerthi":4804,"cÃ¡":4805,"ÙĬØ³ÙĬ":4806,"fir":4807,"kiri":4808,"tzen":4809,"nija":4810,"Ġfasil":4811,"mura":4812,"mudeen":4813,"savitha":4814,"ura":4815,"venki":4816,"Ġloo":4817,"abhilash":4818,"brand":4819,"cre":4820,"ÑĥÐ»Ð°":4821,"Ġek":4822,"Ġnadu":4823,"fat":4824,"kovski":4825,"ÑĭÑĢ":4826,"Ã°ur":4827,"rud":4828,"vong":4829,"gg":4830,"sunee":4831,"lun":4832,"Ġjoji":4833,"aslam":4834,"yumma":4835,"Ġnay":4836,"Ġsudhakar":4837,"moto":4838,"Ġsadiq":4839,"Ġcar":4840,"bella":4841,"chee":4842,"kian":4843,"ÅĨ":4844,"abbas":4845,"Ġsamad":4846,"beiro":4847,"sundar":4848,"ØºØ§ÙĨ":4849,"ÙģÙĬØ±":4850,"yama":4851,"Ð¸ÑģÐ»Ð°Ð²":4852,"qing":4853,"yeong":4854,"jira":4855,"shua":4856,"dova":4857,"alam":4858,"dulla":4859,"Ġkc":4860,"pathumma":4861,"ÄĻ":4862,"mira":4863,"beh":4864,"lovÃ¡":4865,"braham":4866,"ama":4867,"Ġkartha":4868,"Ġjayachandran":4869,"Ġelizabath":4870,"Ġjyothi":4871,"spi":4872,"pav":4873,"adil":4874,"glia":4875,"sreedharan":4876,"Ġdevan":4877,"eali":4878,"chery":4879,"muneera":4880,"Äī":4881,"à´Ĩà´¯":4882,"Ġalphon":4883,"paramban":4884,"rich":4885,"ÙħØ§Ùĥ":4886,"Ġnar":4887,"abha":4888,"ÙĬÙĨÙĥÙĪ":4889,"Ġvazhayil":4890,"nei":4891,"Ġpappachan":4892,"palan":4893,"ely":4894,"vadi":4895,"cÄ±":4896,"à´ľà´¨":4897,"Ġsahib":4898,"kee":4899,"sreekumar":4900,"jainamma":4901,"à´°à´¦":4902,"haritha":4903,"yesudas":4904,"Ġsidhi":4905,"dayana":4906,"cchi":4907,"wad":4908,"Ð¾Ðº":4909,"sabeer":4910,"baj":4911,"arathi":4912,"wali":4913,"ppy":4914,"tong":4915,"Ð¾Ð»ÑĮ":4916,"feeda":4917,"àµ»à´·":4918,"Ò«":4919,"Ġfaris":4920,"Ð·Ð°ÑĢ":4921,"Ð¸Ð»Ñı":4922,"kuryan":4923,"ppel":4924,"Ġshana":4925,"vinaya":4926,"Ð´Ð°ÑĢ":4927,"Ø¬ÙĪ":4928,"asokan":4929,"yy":4930,"emi":4931,"Ġbos":4932,"Ġsen":4933,"ÑĪÐ°ÑĢ":4934,"shri":4935,"sted":4936,"vanaja":4937,"Ø¨Ø§Øª":4938,"rang":4939,"maimoo":4940,"kÄ±":4941,"sulo":4942,"deri":4943,"mudheen":4944,"kaj":4945,"Ø¨Ø¯":4946,"bhavya":4947,"tintu":4948,"à¦Ĩà¦¬":4949,"mum":4950,"anee":4951,"bhay":4952,"Ġsharma":4953,"ashik":4954,"ÑįÑĢ":4955,"moham":4956,"Ġmubara":4957,"uni":4958,"jaison":4959,"kkeem":4960,"àµ½à´«":4961,"ruksana":4962,"enne":4963,"lija":4964,"à´®à´²":4965,"Ġnarayana":4966,"Ġsalih":4967,"wee":4968,"Ø³Ø§ÙĨ":4969,"hÃ¼":4970,"vat":4971,"Ð³Ð°Ð·":4972,"viz":4973,"swapna":4974,"maraj":4975,"Ð¸Ñĩ":4976,"ØºØ§Ø±":4977,"pravan":4978,"Ð¼ÑĥÑħÐ°Ð¼ÐµÑĤ":4979,"nathan":4980,"dhaya":4981,"ped":4982,"haridas":4983,"bava":4984,"ÙĥØ§ÙĦ":4985,"kya":4986,"à´ªà´¤":4987,"ummul":4988,"linger":4989,"jeeva":4990,"kkariya":4991,"Ġtham":4992,"asiya":4993,"Åº":4994,"Ã¤n":4995,"maÃ¯":4996,"rance":4997,"Ð°Ð»ÐµÐºÑģ":4998,"Ġgil":4999}